node {
  name: "global_step"
  op: "Variable"
  attr {
    key: "_output_shapes"
    value {
      list {
        shape {
        }
      }
    }
  }
  attr {
    key: "container"
    value {
      s: ""
    }
  }
  attr {
    key: "dtype"
    value {
      type: DT_INT64
    }
  }
  attr {
    key: "shape"
    value {
      shape {
      }
    }
  }
  attr {
    key: "shared_name"
    value {
      s: ""
    }
  }
}
node {
  name: "global_step/Initializer/zeros"
  op: "Const"
  attr {
    key: "_class"
    value {
      list {
        s: "loc:@global_step"
      }
    }
  }
  attr {
    key: "_output_shapes"
    value {
      list {
        shape {
        }
      }
    }
  }
  attr {
    key: "dtype"
    value {
      type: DT_INT64
    }
  }
  attr {
    key: "value"
    value {
      tensor {
        dtype: DT_INT64
        tensor_shape {
        }
        int64_val: 0
      }
    }
  }
}
node {
  name: "global_step/Assign"
  op: "Assign"
  input: "global_step"
  input: "global_step/Initializer/zeros"
  attr {
    key: "T"
    value {
      type: DT_INT64
    }
  }
  attr {
    key: "_class"
    value {
      list {
        s: "loc:@global_step"
      }
    }
  }
  attr {
    key: "_output_shapes"
    value {
      list {
        shape {
        }
      }
    }
  }
  attr {
    key: "use_locking"
    value {
      b: true
    }
  }
  attr {
    key: "validate_shape"
    value {
      b: true
    }
  }
}
node {
  name: "global_step/read"
  op: "Identity"
  input: "global_step"
  attr {
    key: "T"
    value {
      type: DT_INT64
    }
  }
  attr {
    key: "_class"
    value {
      list {
        s: "loc:@global_step"
      }
    }
  }
  attr {
    key: "_output_shapes"
    value {
      list {
        shape {
        }
      }
    }
  }
}
node {
  name: "Const"
  op: "Const"
  attr {
    key: "_output_shapes"
    value {
      list {
        shape {
          dim {
            size: 9423
          }
          dim {
            size: 9
          }
        }
      }
    }
  }
  attr {
    key: "dtype"
    value {
      type: DT_DOUBLE
    }
  }
  attr {
    key: "value"
    value {
      tensor {
        dtype: DT_DOUBLE
        tensor_shape {
          dim {
            size: 9423
          }
          dim {
            size: 9
          }
        }
        tensor_content: "]\245\367\341v\026\305?]\245\367\341v\026\305?\227yL5\313\033\334?\305\n\265\361Lu\340\2774\312&\253\330\263\243\277(n\331T\022b\245\277\2010\300+\323h\243?\327\3349eG\213\002@\016\350\204\205Q\005\365?]\245\367\341v\026\305?]\245\367\341v\026\305?\361\3345\260\252\232\335?\245\222\363\252\251\362\345?\t\311&\253\330\263\243\277\353i\331T\022b\245\277\2010\300+\323h\243?\327\3349eG\213\002@4\030\244p\3103\364?]\245\367\341v\026\305?]\245\367\341v\026\305?\274\"\003\335\236\332\335?\3156:\321\313\177\324?\327\310&\253\330\263\243\2775k\331T\022b\245\277\2010\300+\323h\243?\327\3349eG\213\002@\005\236l\226 b\363?]\245\367\341v\026\305?]\245\367\341v\026\305?\301\036\t\306}H\334?\201\0028\025\'c\313\277\022\312&\253\330\263\243\277\031m\331T\022b\245\277\2010\300+\323h\243?\327\3349eG\213\002@f\254\227\264<\221\362?]\245\367\341v\026\305?]\245\367\341v\026\305?5\034/\203B\212\334?3\273l\250\340\241\324?\336\311&\253\330\263\243\2774k\331T\022b\245\277\2010\300+\323h\243?\327\3349eG\213\002@=\257\03749\300\361?]\245\367\341v\026\305?]\245\367\341v\026\305?pd\030\234\032\364\334?\275C\245\272\206\222\327?\213\311&\253\330\263\243\277\nk\331T\022b\245\277\2010\300+\323h\243?\327\3349eG\213\002@M\354\263\233\002\357\360?]\245\367\341v\026\305?]\245\367\341v\026\305?\355w\263@g\251\334?z\230\277\315\210\247\304?\306\311&\253\330\263\243\277\305k\331T\022b\245\277\2010\300+\323h\243?\327\3349eG\213\002@F\356\260\303\360\035\360?]\245\367\341v\026\305?]\245\367\341v\026\305?q\275\311\002\340\214\335?d\231\217\267c?\340?\023\311&\253\330\263\243\277\214j\331T\022b\245\277\2010\300+\323h\243?\327\3349eG\213\002@\376\003\337j\341\230\356?]\245\367\341v\026\305?]\245\367\341v\026\305?\207\\\254(\r\356\336?\001v\236\016\315\333\344?\377\307&\253\330\263\243\277\nj\331T\022b\245\277\2010\300+\323h\243?\327\3349eG\213\002@\001%/\245\212\364\354?]\245\367\341v\026\305?]\245\367\341v\026\305?\245\274\306\033_\232\336?\352\243\311\231BV\303?A\310&\253\330\263\243\277\317k\331T\022b\245\277\2010\300+\323h\243?\327\3349eG\213\002@x\312\364C\206P\353?]\245\367\341v\026\305?]\245\367\341v\026\305?\236\035I|\313\177\334?o\275\212\340\'\264\327\277\346\311&\253\330\263\243\277\245m\331T\022b\245\277\2010\300+\323h\243?\327\3349eG\213\002@\330\266\266\336\216\256\351?]\245\367\341v\026\305?]\245\367\341v\026\305?\341=\313\271\361\010\335?\010G.\rv\336\331?{\311&\253\330\263\243\277\351j\331T\022b\245\277\2010\300+\323h\243?\327\3349eG\213\002@-g\376$\023\014\350?]\245\367\341v\026\305?]\245\367\341v\026\305?\365\372\321\273N\'\334?j\313\001dp\335\207\277+\312&\253\330\263\243\277al\331T\022b\245\277\2010\300+\323h\243?\327\3349eG\213\002@,\334\234\024tj\346?]\245\367\341v\026\305?]\245\367\341v\026\305?\351\333^\220\220~\333?k!\205\361\261l\253?\257\312&\253\330\263\243\277&l\331T\022b\245\277\2010\300+\323h\243?\327\3349eG\213\002@\222\3112ez\311\344?]\245\367\341v\026\305?]\245\367\341v\026\305?d@\341\026\205\031\333?xm\366\037\002\312\300?\377\312&\253\330\263\243\277\340k\331T\022b\245\277\2010\300+\323h\243?\327\3349eG\213\002@/\366\303M\344(\343?]\245\367\341v\026\305?]\245\367\341v\026\305?\344\342\265t`]\335?,X\211\202i,\355?9\311&\253\330\263\243\277\037i\331T\022b\245\277\2010\300+\323h\243?\327\3349eG\213\002@\353\032\321\205\033\206\341?]\245\367\341v\026\305?]\245\367\341v\026\305?\256@\201\352\3662\334?\264\373<\367\311V\270\277\"\312&\253\330\263\243\277\255l\331T\022b\245\277\2010\300+\323h\243?\327\3349eG\213\002@\244\033\330\004\355\310\337?]\245\367\341v\026\305?]\245\367\341v\026\305?3\021\250\2746$\335?\007\364.\030\304\300\340?e\311&\253\330\263\243\277~j\331T\022b\245\277\2010\300+\323h\243?\327\3349eG\213\002@\216\304\301\313\320\203\334?]\245\367\341v\026\305?]\245\367\341v\026\305?\271;K\315\235\336\333?r\251z\313\201(\300\277d\312&\253\330\263\243\277\311l\331T\022b\245\277\2010\300+\323h\243?\327\3349eG\213\002@\337\325\225c1A\331?]\245\367\341v\026\305?]\245\367\341v\026\305?\0309\307\240\311%\334?\212\255\361\005X\007\325?-\312&\253\330\263\243\277.k\331T\022b\245\277\2010\300+\323h\243?\327\3349eG\213\002@\263\364\253\036\013\376\325?]\245\367\341v\026\305?]\245\367\341v\026\305?\004\227j8\261$\334?\335\2455\336@t\317?-\312&\253\330\263\243\277yk\331T\022b\245\277\2010\300+\323h\243?\327\3349eG\213\002@\177\345\324\326\352\272\322?]\245\367\341v\026\305?]\245\367\341v\026\305?n894\035v\333?O\301c\345\365\377\247?\266\312&\253\330\263\243\277-l\331T\022b\245\277\2010\300+\323h\243?\327\3349eG\213\002@Z\246\216\240D\362\316?]\245\367\341v\026\305?]\245\367\341v\026\305?\322\305\262\246\n\026\335?\214\010\221\216\016)\347?p\311&\253\330\263\243\277\311i\331T\022b\245\277\2010\300+\323h\243?\327\3349eG\213\002@\244f\351<jh\310?]\245\367\341v\026\305?]\245\367\341v\026\305?YK\243\003\364K\334?L/\215\211\251j\217?\017\312&\253\330\263\243\277Il\331T\022b\245\277\2010\300+\323h\243?\327\3349eG\213\002@jD\356\264\253\341\301?]\245\367\341v\026\305?]\245\367\341v\026\305?P~\321\"\325g\336?\240\203\026M\002\265\353?i\310&\253\330\263\243\277Ii\331T\022b\245\277\2010\300+\323h\243?\327\3349eG\213\002@`\235\003X\206\245\266?]\245\367\341v\026\305?]\245\367\341v\026\305?&*n\220fX\334?\360KX\212\331\342\326\277\005\312&\253\330\263\243\277\232m\331T\022b\245\277\2010\300+\323h\243?\327\3349eG\213\002@\330\231AG\247/\243?]\245\367\341v\026\305?]\245\367\341v\026\305?\265,\'\016\321\347\335?\361K~\356\001\216\346?\314\310&\253\330\263\243\277\332i\331T\022b\245\277\2010\300+\323h\243?\327\3349eG\213\002@\231|\255ES\017\214\277]\245\367\341v\026\305?]\245\367\341v\026\305?.0Y\204w\241\334?\307\272\313?\304D\300\277\314\311&\253\330\263\243\277\312l\331T\022b\245\277\2010\300+\323h\243?\327\3349eG\213\002@\376!,\333\242\221\260\277]\245\367\341v\026\305?]\245\367\341v\026\305?\324\343\3539o\220\333?`\336\246\021.\344\260\277\242\312&\253\330\263\243\277\222l\331T\022b\245\277\2010\300+\323h\243?\327\3349eG\213\002@\371-aj\362\230\275\277]\245\367\341v\026\305?]\245\367\341v\026\305?\310\021\366,&5\333?\367\030H~\2268\302?\351\312&\253\330\263\243\277\327k\331T\022b\245\277\2010\300+\323h\243?\327\3349eG\213\002@g\210?P\256N\305\277]\245\367\341v\026\305?]\245\367\341v\026\305?tp9\256\270\017\333?p\365\345\300\216\037\312?\006\313&\253\330\263\243\277\236k\331T\022b\245\277\2010\300+\323h\243?\327\3349eG\213\002@SQp\320@\320\313\277]\245\367\341v\026\305?]\245\367\341v\026\305?2\361R\243\001`\333?\241\324\316\344\201\262\325?\310\312&\253\330\263\243\277%k\331T\022b\245\277\2010\300+\323h\243?\327\3349eG\213\002@g\177\374u|)\321\277]\245\367\341v\026\305?]\245\367\341v\026\305?7\3505\267\022\315\333?\333d\365r\014\317\327?r\312&\253\330\263\243\277\007k\331T\022b\245\277\2010\300+\323h\243?\327\3349eG\213\002@3\3410U\242k\324\277]\245\367\341v\026\305?]\245\367\341v\026\305?~\007\243\360\326\005\337?N\341]\257\031\024\363?\355\307&\253\330\263\243\277\"h\331T\022b\245\277\2010\300+\323h\243?\327\3349eG\213\002@\275\335X\235\000\264\327\277]\245\367\341v\026\305?]\245\367\341v\026\305?\305\351E@\247\372\336?\321\031N#9\371\315?\365\307&\253\330\263\243\277\203k\331T\022b\245\277\2010\300+\323h\243?\327\3349eG\213\002@Z\016\027^<\374\332\277]\245\367\341v\026\305?]\245\367\341v\026\305?c>\355\002\222\\\335?\246\024\320\255&$\315\2779\311&\253\330\263\243\277%m\331T\022b\245\277\2010\300+\323h\243?\327\3349eG\213\002@\232\033L\324DA\336\277]\245\367\341v\026\305?]\245\367\341v\026\305?\212S\341\345\357\266\333?w\273\217-\300?\316\277\203\312&\253\330\263\243\277,m\331T\022b\245\277\2010\300+\323h\243?\327\3349eG\213\002@\363\201\213\355\204\301\340\277]\245\367\341v\026\305?]\245\367\341v\026\305?R*\324\307\\\016\335?\200\202\027<<\200\344?w\311&\253\330\263\243\277\024j\331T\022b\245\277\2010\300+\323h\243?\327\3349eG\213\002@\030P\357~\254c\342\277]\245\367\341v\026\305?]\245\367\341v\026\305?\307\276\250\227\305\'\335?\265\317v\262\347\253\321?c\311&\253\330\263\243\277]k\331T\022b\245\277\2010\300+\323h\243?\327\3349eG\213\002@;P\002\333\342\005\344\277]\245\367\341v\026\305?]\245\367\341v\026\305?\300j\"A\0040\336?n\367\347\241\263\230\341?\224\310&\253\330\263\243\277fj\331T\022b\245\277\2010\300+\323h\243?\327\3349eG\213\002@2\207P\313\016\251\345\277]\245\367\341v\026\305?]\245\367\341v\026\305?8u\236\237\022\270\335?\327bJ#D\010\274?\362\310&\253\330\263\243\277\364k\331T\022b\245\277\2010\300+\323h\243?\327\3349eG\213\002@\363\334\334b\271K\347\277]\245\367\341v\026\305?]\245\367\341v\026\305?\263\243b\205~\213\335?\206\263\361\206\366\022\311?\025\311&\253\330\263\243\277\246k\331T\022b\245\277\2010\300+\323h\243?\327\3349eG\213\002@{w\361\016*\356\350\277]\245\367\341v\026\305?]\245\367\341v\026\305?_)#\235\013\257\334?\315\313\275`H_w\277\301\311&\253\330\263\243\277\\l\331T\022b\245\277\2010\300+\323h\243?\327\3349eG\213\002@6h\224\314\263\217\352\277]\245\367\341v\026\305?]\245\367\341v\026\305? \013\346\221\024\220\336?2cUip\214\351?I\310&\253\330\263\243\277\205i\331T\022b\245\277\2010\300+\323h\243?\327\3349eG\213\002@\0166\201O\3752\354\277]\245\367\341v\026\305?]\245\367\341v\026\305?\347\355e\276\022\033\336?\306\312\032\333\341\344\274?\244\310&\253\330\263\243\277\361k\331T\022b\245\277\2010\300+\323h\243?\327\3349eG\213\002@#\213\206`\276\325\355\277]\245\367\341v\026\305?]\245\367\341v\026\305?\300gS~\300\272\335?O\215\213Pn{\301?\360\310&\253\330\263\243\277\334k\331T\022b\245\277\2010\300+\323h\243?\327\3349eG\213\002@\\\340H\033\007x\357\277]\245\367\341v\026\305?]\245\367\341v\026\305?\242\220\264\333\272$\335?va\344\326\2654\263?e\311&\253\330\263\243\277\023l\331T\022b\245\277\2010\300+\323h\243?\327\3349eG\213\002@\223\204\3444\317\214\360\277]\245\367\341v\026\305?]\245\367\341v\026\305?\204;\262r^9\333?\322V\224ei=\324\277\346\312&\253\330\263\243\277um\331T\022b\245\277\2010\300+\323h\243?\327\3349eG\213\002@\237Pc|\231\\\361\277]\245\367\341v\026\305?]\245\367\341v\026\305?\331d\272\355e\272\334?\024i+&\351\006\346?\270\311&\253\330\263\243\277\351i\331T\022b\245\277\2010\300+\323h\243?\327\3349eG\213\002@?l\033u\007-\362\277]\245\367\341v\026\305?]\245\367\341v\026\305?\022B\274\2234\257\336?\344U\'\202\033F\352?1\310&\253\330\263\243\277qi\331T\022b\245\277\2010\300+\323h\243?\327\3349eG\213\002@\243W\206\226K\376\362\277]\245\367\341v\026\305?]\245\367\341v\026\305?\330\221\263\323#\377\333?Im\230\261\324U\341\277K\312&\253\330\263\243\277@n\331T\022b\245\277\2010\300+\323h\243?\327\3349eG\213\002@/H\201\252\036\316\363\277]\245\367\341v\026\305?]\245\367\341v\026\305?&Zm~&\213\336?l\026\013\234\365\321\357?M\310&\253\330\263\243\277\325h\331T\022b\245\277\2010\300+\323h\243?\327\3349eG\213\002@\020\304\226\337\377\236\364\277]\245\367\341v\026\305?]\245\367\341v\026\305?\210\005\255G\327\245\334?\371\364wb\302\313\323\277\311\311&\253\330\263\243\277om\331T\022b\245\277\2010\300+\323h\243?\327\3349eG\213\002@\234\026}\034\273n\365\277]\245\367\341v\026\305?]\245\367\341v\026\305?\206i\263\334\\\322\333?U\203$\365$\277r?n\312&\253\330\263\243\277Sl\331T\022b\245\277\2010\300+\323h\243?\327\3349eG\213\002@\200]S\250\301=\366\277]\245\367\341v\026\305?]\245\367\341v\026\305?\017Bw.\204A\336?\3655\000\310\373\302\356?\206\310&\253\330\263\243\277\363h\331T\022b\245\277\2010\300+\323h\243?\327\3349eG\213\002@8\031\304>\210\r\367\277]\245\367\341v\026\305?]\245\367\341v\026\305?\364\000\3103@\225\336?@\273\020tJ\363\325?E\310&\253\330\263\243\277!k\331T\022b\245\277\2010\300+\323h\243?\327\3349eG\213\002@\345\273=O\333\334\367\277]\245\367\341v\026\305?]\245\367\341v\026\305?U\032!\356q\257\334?h\212\336\240\024\325\323\277\301\311&\253\330\263\243\277om\331T\022b\245\277\2010\300+\323h\243?\327\3349eG\213\002@\332\235\205&]\252\370\277]\245\367\341v\026\305?]\245\367\341v\026\305?\320\272\003\330\3647\333?@\367f\006~z\307\277\347\312&\253\330\263\243\277\375l\331T\022b\245\277\2010\300+\323h\243?\327\3349eG\213\002@\0340\370S\275u\371\277]\245\367\341v\026\305?]\245\367\341v\026\305?\336R\254\236PS\333?k[\253\231\202\320\321?\321\312&\253\330\263\243\277[k\331T\022b\245\277\2010\300+\323h\243?\327\3349eG\213\002@\374{\277\021\264>\372\277$\005\000\036\215G\030\300$\005\000\036\215G\030\300\255\327\374\255\367\237\335?=\362\223\266\001\177\355?\005\311&\253\330\263\243\277\026i\331T\022b\245\277\2010\300+\323h\243?\327\3349eG\213\002@\245b\216\337\360\003\373\277$\005\000\036\215G\030\300$\005\000\036\215G\030\300=\344\t\243\301\255\333?@\211#\336\017\276\324\277\212\312&\253\330\263\243\277|m\331T\022b\245\277\2010\300+\323h\243?\327\3349eG\213\002@\'\344\210~X\275\373\277$\005\000\036\215G\030\300$\005\000\036\215G\030\300\356\202\026\022\201\214\335?\273Y\350%\366v\351?\024\311&\253\330\263\243\277\210i\331T\022b\245\277\2010\300+\323h\243?\327\3349eG\213\002@\275\365\265\250\346W\374\277$\005\000\036\215G\030\300$\005\000\036\215G\030\300s\241\3052>\263\334?\220\017>\354\264\317`\277\276\311&\253\330\263\243\277Yl\331T\022b\245\277\2010\300+\323h\243?\327\3349eG\213\002@\311\372\363YY\217\374\277$\005\000\036\215G\030\300$\005\000\036\215G\030\300\330 \261\220 \346\336?\341\317\310i\010\215\354?\005\310&\253\330\263\243\2771i\331T\022b\245\277\2010\300+\323h\243?\327\3349eG\213\002@\372\0360\310\0050\374\277$\005\000\036\215G\030\300$\005\000\036\215G\030\300\246L\220\232\347\243\335?Z\347\352m{S\277\277\001\311&\253\330\263\243\277\305l\331T\022b\245\277\2010\300+\323h\243?\327\3349eG\213\002@f\343\254\267\353\207\373\277$\005\000\036\215G\030\300$\005\000\036\215G\030\300\324^\031\256\"\320\333?\301\332\013\210W\202\322\277o\312&\253\330\263\243\277\\m\331T\022b\245\277\2010\300+\323h\243?\327\3349eG\213\002@\002\220i3\024\312\372\277]\245\367\341v\026\305?]\245\367\341v\026\305?[v\031\3732\372\334?U\253\351\362E\326\342?\206\311&\253\330\263\243\277Cj\331T\022b\245\277\2010\300+\323h\243?\327\3349eG\213\002@\276\326\355\031T\003\372\277]\245\367\341v\026\305?]\245\367\341v\026\305?D1\270\264\226\316\333?\371\271N\307\314\260\270\277q\312&\253\330\263\243\277\256l\331T\022b\245\277\2010\300+\323h\243?\327\3349eG\213\002@AJF\335>9\371\277]\245\367\341v\026\305?]\245\367\341v\026\305?\365G\260\034\177\245\335?A\244BqW-\351?\000\311&\253\330\263\243\277\220i\331T\022b\245\277\2010\300+\323h\243?\327\3349eG\213\002@Qr\361\3564l\370\277]\245\367\341v\026\305?]\245\367\341v\026\305?6s\233\\\320g\336?\341w8\370\035\020\336?i\310&\253\330\263\243\277\256j\331T\022b\245\277\2010\300+\323h\243?\327\3349eG\213\002@\260\304\363\275\216\235\367\277]\245\367\341v\026\305?]\245\367\341v\026\305?\363\022\364S\371b\334?q\221\371\353\354\033\326\277\375\311&\253\330\263\243\277\217m\331T\022b\245\277\2010\300+\323h\243?\327\3349eG\213\002@\370\345}F\024\317\366\277]\245\367\341v\026\305?]\245\367\341v\026\305?\324\240\003\027\033j\333?\360mbF\310\231\243\277\277\312&\253\330\263\243\277yl\331T\022b\245\277\2010\300+\323h\243?\327\3349eG\213\002@\303T\256\347\207\000\366\277]\245\367\341v\026\305?]\245\367\341v\026\305?\r`\027L\025R\333?\\\217kd\022\027\314?\322\312&\253\330\263\243\277\221k\331T\022b\245\277\2010\300+\323h\243?\327\3349eG\213\002@(\270\347\236\2451\365\277]\245\367\341v\026\305?]\245\367\341v\026\305?\223\320\366\000L\225\335?T\3229K_&\355?\r\311&\253\330\263\243\277 i\331T\022b\245\277\2010\300+\323h\243?\327\3349eG\213\002@\315\020\335sca\364\277]\245\367\341v\026\305?]\245\367\341v\026\305?\276\254\234?\320\010\334?\221\321\000B\026\217\312\277C\312&\253\330\263\243\277\023m\331T\022b\245\277\2010\300+\323h\243?\327\3349eG\213\002@\3049\263\214\252\221\363\277]\245\367\341v\026\305?]\245\367\341v\026\305?\342\001\206\305?\262\334?\024\023\264\365\321<\334?\277\311&\253\330\263\243\277\311j\331T\022b\245\277\2010\300+\323h\243?\327\3349eG\213\002@)\222\'|u\301\362\277]\245\367\341v\026\305?]\245\367\341v\026\305?\224B\r\346\243H\336?\326h\264\260\201\317\346?\201\310&\253\330\263\243\277\323i\331T\022b\245\277\2010\300+\323h\243?\327\3349eG\213\002@C\3537\023Z\360\361\277]\245\367\341v\026\305?]\245\367\341v\026\305?\207\313\312\3442f\334?Um\255j\345\225\323\277\372\311&\253\330\263\243\277lm\331T\022b\245\277\2010\300+\323h\243?\327\3349eG\213\002@\345\345\326\271\r \361\277]\245\367\341v\026\305?]\245\367\341v\026\305?R\325\373oZg\333?9h<\377\334\033\247\277\301\312&\253\330\263\243\277\200l\331T\022b\245\277\2010\300+\323h\243?\327\3349eG\213\002@\251\225\275@\'P\360\277]\245\367\341v\026\305?]\245\367\341v\026\305?\372\314YV#\315\335?\036\366/\304\001k\356?\341\310&\253\330\263\243\277\374h\331T\022b\245\277\2010\300+\323h\243?\327\3349eG\213\002@\215FZ\346\t\376\356\277]\245\367\341v\026\305?]\245\367\341v\026\305?M\272X\223a9\334?\373\310\211\340I\240\313\277\035\312&\253\330\263\243\277\032m\331T\022b\245\277\2010\300+\323h\243?\327\3349eG\213\002@\277\253-\023/]\355\277]\245\367\341v\026\305?]\245\367\341v\026\305?\0007abs\026\333?Q\374\206\203\273$\266\277\001\313&\253\330\263\243\277\245l\331T\022b\245\277\2010\300+\323h\243?\327\3349eG\213\002@\007\371:qU\275\353\277]\245\367\341v\026\305?]\245\367\341v\026\305?\214!.\303x\225\334?\344\343%\213\r\364\345?\325\311&\253\330\263\243\277\353i\331T\022b\245\277\2010\300+\323h\243?\327\3349eG\213\002@B\255\216@\362\033\352\277]\245\367\341v\026\305?]\245\367\341v\026\305?\277\307\241\372\324\'\333?\001isI\216\010\306\277\363\312&\253\330\263\243\277\363l\331T\022b\245\277\2010\300+\323h\243?\327\3349eG\213\002@7\3056\265\337{\350\277]\245\367\341v\026\305?]\245\367\341v\026\305?\221\246\372\350\227\265\336?\220\211\252\261*\243\364?,\310&\253\330\263\243\277\311g\331T\022b\245\277\2010\300+\323h\243?\327\3349eG\213\002@sY\2460I\330\346\277]\245\367\341v\026\305?]\245\367\341v\026\305?\317n\310\216\236\376\336?Mp\311\202-*\325?\363\307&\253\330\263\243\277,k\331T\022b\245\277\2010\300+\323h\243?\327\3349eG\213\002@\023D\214\221]4\345\277]\245\367\341v\026\305?]\245\367\341v\026\305?\013`\233S\315q\336?\335Rz\2431\350\265?a\310&\253\330\263\243\277\nl\331T\022b\245\277\2010\300+\323h\243?\327\3349eG\213\002@6}\022j\356\220\343\277]\245\367\341v\026\305?]\245\367\341v\026\305?\277\2672{\245\004\336?b\335\004Z\2652\277?\266\310&\253\330\263\243\277\351k\331T\022b\245\277\2010\300+\323h\243?\327\3349eG\213\002@uF1y\336\355\341\277]\245\367\341v\026\305?]\245\367\341v\026\305?\325\'\360\372OD\334?o\310=\213U\025\321\277\024\312&\253\330\263\243\277Hm\331T\022b\245\277\2010\300+\323h\243?\327\3349eG\213\002@\216(\353\272xL\340\277]\245\367\341v\026\305?]\245\367\341v\026\305?c\320\232(\243\"\336?\215\300[\227\375r\351?\236\310&\253\330\263\243\277\210i\331T\022b\245\277\2010\300+\323h\243?\327\3349eG\213\002@[\036\214\375rR\335\277]\245\367\341v\026\305?]\245\367\341v\026\305?\313T\275\363\001\236\334?\351aJ-\027h\311\277\317\311&\253\330\263\243\277\013m\331T\022b\245\277\2010\300+\323h\243?\327\3349eG\213\002@uM\206\342\330\016\332\277]\245\367\341v\026\305?]\245\367\341v\026\305?\343\002\312l\337|\335?\306r\257\316!\024\340? \311&\253\330\263\243\277\221j\331T\022b\245\277\2010\300+\323h\243?\327\3349eG\213\002@\327\371\270\306\177\311\326\277]\245\367\341v\026\305?]\245\367\341v\026\305?$\214\257\354\357\352\335?\331%pt\311\341\327?\312\310&\253\330\263\243\277\006k\331T\022b\245\277\2010\300+\323h\243?\327\3349eG\213\002@bc\034ND\203\323\277]\245\367\341v\026\305?]\245\367\341v\026\305?`\334|\356\017\260\336?\363\261\335\276\330D\336?0\310&\253\330\263\243\277\253j\331T\022b\245\277\2010\300+\323h\243?\327\3349eG\213\002@\t\311\272P~;\320\277]\245\367\341v\026\305?]\245\367\341v\026\305?vr\n\316\240\244\333?\r\033\215\254\320\257\344\277\222\312&\253\330\263\243\277\237n\331T\022b\245\277\2010\300+\323h\243?\327\3349eG\213\002@iD8\0274\363\311\277]\245\367\341v\026\305?]\245\367\341v\026\305?\345\027B\334P\026\333?\355\351m\037\343w\265?\001\313&\253\330\263\243\277\013l\331T\022b\245\277\2010\300+\323h\243?\327\3349eG\213\002@qu\007\350\202q\303\277]\245\367\341v\026\305?]\245\367\341v\026\305?b\316/\014\304\341\334?\235`tx\277\301\350?\232\311&\253\330\263\243\277\234i\331T\022b\245\277\2010\300+\323h\243?\327\3349eG\213\002@\035L\345\310\213\321\271\277]\245\367\341v\026\305?]\245\367\341v\026\305?\2344\005\013b\223\335?N\247\024\245y\326\334?\017\311&\253\330\263\243\277\300j\331T\022b\245\277\2010\300+\323h\243?\327\3349eG\213\002@\232C\316\210\032u\251\277]\245\367\341v\026\305?]\245\367\341v\026\305?\353\322A(\014J\335?\272=\362p\317\332\304?H\311&\253\330\263\243\277\304k\331T\022b\245\277\2010\300+\323h\243?\327\3349eG\213\002@\023\003}\241\263\224V?]\245\367\341v\026\305?]\245\367\341v\026\305?%\275BD\353>\333?S\231`.\007\222\326\277\341\312&\253\330\263\243\277\225m\331T\022b\245\277\2010\300+\323h\243?\327\3349eG\213\002@\360x\323\324\314\276\252?]\245\367\341v\026\305?]\245\367\341v\026\305?\301_\376\313\347\220\333?w\231\357Bv\322\325?\241\312&\253\330\263\243\277#k\331T\022b\245\277\2010\300+\323h\243?\327\3349eG\213\002@\010\300\373\211\017g\272?]\245\367\341v\026\305?]\245\367\341v\026\305?\032JmDs\357\334?\306Y\020\374\026\303\344?\217\311&\253\330\263\243\277\rj\331T\022b\245\277\2010\300+\323h\243?\327\3349eG\213\002@>\204\317\014\273\274\303?]\245\367\341v\026\305?]\245\367\341v\026\305?\360\251y \265\327\334?\345\210\227\300\225!\314?\241\311&\253\330\263\243\277\221k\331T\022b\245\277\2010\300+\323h\243?\327\3349eG\213\002@;\332\246\035\234E\312?]\245\367\341v\026\305?]\245\367\341v\026\305?\320\245\000\3601\262\335?\317[v\307\014\326\337?\366\310&\253\330\263\243\277\225j\331T\022b\245\277\2010\300+\323h\243?\327\3349eG\213\002@\333\013\264U\354h\320?]\245\367\341v\026\305?]\245\367\341v\026\305?I!\275\335\276\270\334?O\362\327\326!\361\243\277\271\311&\253\330\263\243\277zl\331T\022b\245\277\2010\300+\323h\243?\327\3349eG\213\002@\004\2672\271)\255\323?]\245\367\341v\026\305?]\245\367\341v\026\305?Y\343\301 \370\362\333?\230\365w\335\024\305\224?T\312&\253\330\263\243\277El\331T\022b\245\277\2010\300+\323h\243?\327\3349eG\213\002@\357\367\023k\352\357\326?]\245\367\341v\026\305?]\245\367\341v\026\305?\213/\006\366$v\336?\366\335\336.\376~\357?^\310&\253\330\263\243\277\335h\331T\022b\245\277\2010\300+\323h\243?\327\3349eG\213\002@\246\001\036*\2227\332?]\245\367\341v\026\305?]\245\367\341v\026\305?\373{\306\224\032/\333?&A\030\201\212\337\346\277\355\312&\253\330\263\243\277\335n\331T\022b\245\277\2010\300+\323h\243?\327\3349eG\213\002@\313`\321 \335x\335?]\245\367\341v\026\305?]\245\367\341v\026\305?\264\343~\311\363\375\333?\237\373C\255u\373\336?L\312&\253\330\263\243\277\241j\331T\022b\245\277\2010\300+\323h\243?\327\3349eG\213\002@\311\0001\347\336]\340?]\245\367\341v\026\305?]\245\367\341v\026\305?B\331\301{B\327\333?W\013[\n\014\360\311?j\312&\253\330\263\243\277\240k\331T\022b\245\277\2010\300+\323h\243?\327\3349eG\213\002@z\317\260%+\377\341?]\245\367\341v\026\305?]\245\367\341v\026\305?\315\277\005\315~L\335?\335\236N!*\230\345?F\311&\253\330\263\243\277\365i\331T\022b\245\277\2010\300+\323h\243?\327\3349eG\213\002@\027\370\007\353\343\241\343?]\245\367\341v\026\305?]\245\367\341v\026\305?\224T2]\213\323\334?np\336\005\235\274\273?\245\311&\253\330\263\243\277\365k\331T\022b\245\277\2010\300+\323h\243?\327\3349eG\213\002@Woee(D\345?]\245\367\341v\026\305?]\245\367\341v\026\305?\235\001\242\320\362\307\334?\275\033\331p\326\351\315?\256\311&\253\330\263\243\277\203k\331T\022b\245\277\2010\300+\323h\243?\327\3349eG\213\002@f\013\210\340b\346\346?]\245\367\341v\026\305?]\245\367\341v\026\305?rM\006\267\243\372\335?\020\223\253{I\'\343?\276\310&\253\330\263\243\277:j\331T\022b\245\277\2010\300+\323h\243?\327\3349eG\213\002@\227`\022\354\310\211\350?]\245\367\341v\026\305?]\245\367\341v\026\305?\013\263\341[\244?\333?\242 \366\231|\274\341\277\340\312&\253\330\263\243\277Ln\331T\022b\245\277\2010\300+\323h\243?\327\3349eG\213\002@6x\302\032\210*\352?]\245\367\341v\026\305?]\245\367\341v\026\305?+\324\240\244\202R\336?\366\215uX)b\362?y\310&\253\330\263\243\277Hh\331T\022b\245\277\2010\300+\323h\243?\327\3349eG\213\002@\361b3\332E\316\353?]\245\367\341v\026\305?]\245\367\341v\026\305?\"\264\371h\344\277\333?\204\2620TOA\340\277|\312&\253\330\263\243\277\"n\331T\022b\245\277\2010\300+\323h\243?\327\3349eG\213\002@\243O\212\342\203o\355?]\245\367\341v\026\305?]\245\367\341v\026\305?!\017\315<\206\340\335?\304\231\345\231\243\341\353?\322\310&\253\330\263\243\277Di\331T\022b\245\277\2010\300+\323h\243?\327\3349eG\213\002@rh%\271\324\022\357?]\245\367\341v\026\305?]\245\367\341v\026\305?tQ%\325\365)\333?\023\nh\001\333\222\341\277\362\312&\253\330\263\243\277Gn\331T\022b\245\277\2010\300+\323h\243?\327\3349eG\213\002@\234\301\271`\301Y\360?]\245\367\341v\026\305?]\245\367\341v\026\305?\277\201t\326ut\335?\207\370\347\034\313j\355?\'\311&\253\330\263\243\277\030i\331T\022b\245\277\2010\300+\323h\243?\327\3349eG\213\002@i\303\356\0356+\361?]\245\367\341v\026\305?]\245\367\341v\026\305?\270\370\320\227JJ\333?MJCa\375\330\330\277\330\312&\253\330\263\243\277\265m\331T\022b\245\277\2010\300+\323h\243?\327\3349eG\213\002@\304\373\345\261\235\373\361?]\245\367\341v\026\305?]\245\367\341v\026\305?3\244\t5\007U\335?8\217\026\246\010\024\353?@\311&\253\330\263\243\277Zi\331T\022b\245\277\2010\300+\323h\243?\327\3349eG\213\002@b/\270\360\003\315\362?]\245\367\341v\026\305?]\245\367\341v\026\305?v\220\234\260\237\261\336?\311\221\323O\311\260\344?/\310&\253\330\263\243\277\016j\331T\022b\245\277\2010\300+\323h\243?\327\3349eG\213\002@sJ\346 \024\237\363?]\245\367\341v\026\305?]\245\367\341v\026\305?\252\353f\276\376P\335?K~bI\327\037\304\277B\311&\253\330\263\243\277\345l\331T\022b\245\277\2010\300+\323h\243?\327\3349eG\213\002@\321\"$\"yp\364?]\245\367\341v\026\305?]\245\367\341v\026\305?\344|\274\253/;\335?\2072\34419j\314?S\311&\253\330\263\243\277\216k\331T\022b\245\277\2010\300+\323h\243?\327\3349eG\213\002@\353\214\374\334\323A\365?]\245\367\341v\026\305?]\245\367\341v\026\305?,)\277{\013\027\336?n\355R\330\314\357\337?\250\310&\253\330\263\243\277\224j\331T\022b\245\277\2010\300+\323h\243?\327\3349eG\213\002@\354\322\343\334\231\023\366?]\245\367\341v\026\305?]\245\367\341v\026\305?\230\002\rf!j\335?\033J\204K\360\371\250?/\311&\253\330\263\243\277+l\331T\022b\245\277\2010\300+\323h\243?\327\3349eG\213\002@9\214\013\r\014\345\366?]\245\367\341v\026\305?]\245\367\341v\026\305?J\020N\243\334\017\334?\361n\321Q\3620\303\277>\312&\253\330\263\243\277\336l\331T\022b\245\277\2010\300+\323h\243?\327\3349eG\213\002@7X\371\024\326\265\367?]\245\367\341v\026\305?]\245\367\341v\026\305?\235\303\334G1\251\333?H\215\344\372\374\214\300?\216\312&\253\330\263\243\277\342k\331T\022b\245\277\2010\300+\323h\243?\327\3349eG\213\002@\312\235Eqn\206\370?]\245\367\341v\026\305?]\245\367\341v\026\305?\330\rQ\326\361\236\333?\263)\350\030y\034\316?\226\312&\253\330\263\243\277\203k\331T\022b\245\277\2010\300+\323h\243?\327\3349eG\213\002@\216]b\024\002W\371?]\245\367\341v\026\305?]\245\367\341v\026\305?5`\304\026|p\334?C9\355r\002.\337?\362\311&\253\330\263\243\277\237j\331T\022b\245\277\2010\300+\323h\243?\327\3349eG\213\002@\270\314\336\346\373\'\372?]\245\367\341v\026\305?]\245\367\341v\026\305?i\327\345\034p\261\334?C\351\312\327\220\222\324?\300\311&\253\330\263\243\2775k\331T\022b\245\277\2010\300+\323h\243?\327\3349eG\213\002@\252\207\362\217\025\371\372?]\245\367\341v\026\305?]\245\367\341v\026\305?z\372f\221\301\266\333?\266BCcH\252\244\277\203\312&\253\330\263\243\277|l\331T\022b\245\277\2010\300+\323h\243?\327\3349eG\213\002@$a\315\200\265\311\373?]\245\367\341v\026\305?]\245\367\341v\026\305?\373\363\034\212CN\334?\336[0\350\036\354\332?\r\312&\253\330\263\243\277\333j\331T\022b\245\277\2010\300+\323h\243?\327\3349eG\213\002@\233\036O^\237\232\374?]\245\367\341v\026\305?]\245\367\341v\026\305?\032}\024\225ab\333?Gp\031\227eQ\314\277\305\312&\253\330\263\243\277\037m\331T\022b\245\277\2010\300+\323h\243?\327\3349eG\213\002@T\234\3004\006\014\365?]\245\367\341v\026\305?]\245\367\341v\026\305?q6+\221\205\270\334?%\031\'\304+t\344?\272\311&\253\330\263\243\277\025j\331T\022b\245\277\2010\300+\323h\243?\327\3349eG\213\002@\332iI\037\353:\364?]\245\367\341v\026\305?]\245\367\341v\026\305?\010\310\223f\264[\333?\323]K\233\253\220\303\277\313\312&\253\330\263\243\277\341l\331T\022b\245\277\2010\300+\323h\243?\327\3349eG\213\002@l\032\206\016zj\363?]\245\367\341v\026\305?]\245\367\341v\026\305?\351=1\035\277\365\336?$\367\007P\323\334\364?\372\307&\253\330\263\243\277\274g\331T\022b\245\277\2010\300+\323h\243?\327\3349eG\213\002@\"\303h\322H\230\362?]\245\367\341v\026\305?]\245\367\341v\026\305?A\303\362!\034m\333?\317+\351\005\203G\351\277\275\312&\253\330\263\243\277!o\331T\022b\245\277\2010\300+\323h\243?\327\3349eG\213\002@\274f\376\003\320\307\361?]\245\367\341v\026\305?]\245\367\341v\026\305?\274+\341:\307\224\333?p\365\376\251\262\267\322?\236\312&\253\330\263\243\277Ok\331T\022b\245\277\2010\300+\323h\243?\327\3349eG\213\002@\277\377\242MD\367\360?]\245\367\341v\026\305?]\245\367\341v\026\305?\2778\034`\231\007\333?;W\353\200\003\315\265?\014\313&\253\330\263\243\277\nl\331T\022b\245\277\2010\300+\323h\243?\327\3349eG\213\002@\323\337&\255\375&\360?]\245\367\341v\026\305?]\245\367\341v\026\305?\002\325\2457\351\313\336?\254{\005qJ\243\365?\032\310&\253\330\263\243\277\221g\331T\022b\245\277\2010\300+\323h\243?\327\3349eG\213\002@]\217r\323\304\251\356?]\245\367\341v\026\305?]\245\367\341v\026\305?\014\347\357\327\037\332\336?\022\246F\257\242\331\320?\017\310&\253\330\263\243\277ik\331T\022b\245\277\2010\300+\323h\243?\327\3349eG\213\002@\270\276\271f\201\005\355?]\245\367\341v\026\305?]\245\367\341v\026\305?\024\260\357k\243-\334?\017\206g\01384\341\277&\312&\253\330\263\243\277<n\331T\022b\245\277\2010\300+\323h\243?\327\3349eG\213\002@\342\200\302\332\330c\353?]\245\367\341v\026\305?]\245\367\341v\026\305?\211\206\007m\271\362\333?\225\335\224\031\200\370\306?T\312&\253\330\263\243\277\265k\331T\022b\245\277\2010\300+\323h\243?\327\3349eG\213\002@pQ\324\245j\302\351?]\245\367\341v\026\305?]\245\367\341v\026\305? \2703\027U\370\335?\013_\341\225\337\343\352?\277\310&\253\330\263\243\277_i\331T\022b\245\277\2010\300+\323h\243?\327\3349eG\213\002@@\010\304\374\005\037\350?]\245\367\341v\026\305?]\245\367\341v\026\305?n\242\213\206\231\272\333?\036~\2725iH\332\277\201\312&\253\330\263\243\277\312m\331T\022b\245\277\2010\300+\323h\243?\327\3349eG\213\002@\020\037\027\237\320}\346?]\245\367\341v\026\305?]\245\367\341v\026\305?\367\365\245J]\364\334?\320\271N)\266i\343?\213\311&\253\330\263\243\2773j\331T\022b\245\277\2010\300+\323h\243?\327\3349eG\213\002@\033\312\017?k\333\344?]\245\367\341v\026\305?]\245\367\341v\026\305?\2171\363\355\261\261\336?i\210\037\220)=\350?/\310&\253\330\263\243\277\252i\331T\022b\245\277\2010\300+\323h\243?\327\3349eG\213\002@\245\263\335\366U7\343?]\245\367\341v\026\305?]\245\367\341v\026\305?\037\355U\2023Q\335?*\363\"s\306\032\304\277B\311&\253\330\263\243\277\345l\331T\022b\245\277\2010\300+\323h\243?\327\3349eG\213\002@k\200P\372\230\224\341?]\245\367\341v\026\305?]\245\367\341v\026\305?\322\277\346\\^\310\336?\375%\256\000N\252\345?\035\310&\253\330\263\243\277\363i\331T\022b\245\277\2010\300+\323h\243?\327\3349eG\213\002@\205\241\355\014\341\340\337?]\245\367\341v\026\305?]\245\367\341v\026\305?*1\256f\002\213\336?=c\317\353\247\234\306?M\310&\253\330\263\243\277\267k\331T\022b\245\277\2010\300+\323h\243?\327\3349eG\213\002@\350\314\254\263\n\231\334?]\245\367\341v\026\305?]\245\367\341v\026\305?r\344\023\307\333\222\333?\030\034\250%\275\372\343\277\240\312&\253\330\263\243\277\213n\331T\022b\245\277\2010\300+\323h\243?\327\3349eG\213\002@\005\276\034\227\376V\331?]\245\367\341v\026\305?]\245\367\341v\026\305?\372\266W\342e\021\336?f\'\263evS\357?\254\310&\253\330\263\243\277\342h\331T\022b\245\277\2010\300+\323h\243?\327\3349eG\213\002@\275\212\236\325\033\020\326?]\245\367\341v\026\305?]\245\367\341v\026\305?\330\3062O5\032\333?\027\373\217\251\266\361\343\277\376\312&\253\330\263\243\277\212n\331T\022b\245\277\2010\300+\323h\243?\327\3349eG\213\002@\207-\261\341\001\317\322?]\245\367\341v\026\305?]\245\367\341v\026\305?j\323\332\035\010\006\333?L\"\302^\211\247\314?\016\313&\253\330\263\243\277\215k\331T\022b\245\277\2010\300+\323h\243?\327\3349eG\213\002@\371`\217\225&\034\317?]\245\367\341v\026\305?]\245\367\341v\026\305?)\356\177\330Q\211\334?\316\222\322\033\037\034\346?\337\311&\253\330\263\243\277\346i\331T\022b\245\277\2010\300+\323h\243?\327\3349eG\213\002@P\007\001uo\224\310?]\245\367\341v\026\305?]\245\367\341v\026\305?\260\206\334\361?\201\333?N\372E\353\311\205\254\277\255\312&\253\330\263\243\277\211l\331T\022b\245\277\2010\300+\323h\243?\327\3349eG\213\002@\366\010\372H\305\020\302?]\245\367\341v\026\305?]\245\367\341v\026\305?\226I\240\271<\234\333?Q\372}\203\212\311\321?\230\312&\253\330\263\243\277\\k\331T\022b\245\277\2010\300+\323h\243?\327\3349eG\213\002@\300\215m\323x\031\267?]\245\367\341v\026\305?]\245\367\341v\026\305?{I\226\022\352\367\336?\255Z\211\022\003\270\363?\370\307&\253\330\263\243\277\375g\331T\022b\245\277\2010\300+\323h\243?\327\3349eG\213\002@c\370\000\007\271\356\243?]\245\367\341v\026\305?]\245\367\341v\026\305?Pr\027\220\220\276\333?\267\372\002\206\372^\346\277}\312&\253\330\263\243\277\316n\331T\022b\245\277\2010\300+\323h\243?\327\3349eG\213\002@\257\t.\346\215\214\210\277]\245\367\341v\026\305?]\245\367\341v\026\305?\000\337%\264s\320\336?M\244\317.\216]\362?\027\310&\253\330\263\243\277Jh\331T\022b\245\277\2010\300+\323h\243?\327\3349eG\213\002@\224v\253\030H2\260\277]\245\367\341v\026\305?]\245\367\341v\026\305?Pn\367K\037l\334?\342\211XxJ\035\335\277\365\311&\253\330\263\243\277\362m\331T\022b\245\277\2010\300+\323h\243?\327\3349eG\213\002@\210\232\352\246E@\275\277]\245\367\341v\026\305?]\245\367\341v\026\305?\272\230Qf\272\343\334?\353\007\314I\373\224\330?\230\311&\253\330\263\243\277\374j\331T\022b\245\277\2010\300+\323h\243?\327\3349eG\213\002@\346\271\3639\343(\305\277]\245\367\341v\026\305?]\245\367\341v\026\305?!\272\037!\224\275\333?\n\350`\256\216\026\267\277~\312&\253\330\263\243\277\250l\331T\022b\245\277\2010\300+\323h\243?\327\3349eG\213\002@\242\351\341^\032\255\313\277]\245\367\341v\026\305?]\245\367\341v\026\305?\007\317%\313\264\355\334?1\240\33017\017\343?\220\311&\253\330\263\243\277<j\331T\022b\245\277\2010\300+\323h\243?\327\3349eG\213\002@\210g\263\334\356\032\321\277]\245\367\341v\026\305?]\245\367\341v\026\305?\270y\024mbk\336?\327{b\246q\347\345?f\310&\253\330\263\243\277\354i\331T\022b\245\277\2010\300+\323h\243?\327\3349eG\213\002@\333{lm,b\324\277]\245\367\341v\026\305?]\245\367\341v\026\305?v\030\332,@\004\333?\354\300\300v\350\014\350\277\017\313&\253\330\263\243\277\376n\331T\022b\245\277\2010\300+\323h\243?\327\3349eG\213\002@$o\027\222\300\242\327\277]\245\367\341v\026\305?]\245\367\341v\026\305?\376\200\031\363\334\212\336?\270\255;\310\231\201\364?M\310&\253\330\263\243\277\321g\331T\022b\245\277\2010\300+\323h\243?\327\3349eG\213\002@|N+<#\352\332\277]\245\367\341v\026\305?]\245\367\341v\026\305?\301\272\036s+\202\336?\367\031jm\334V\316?T\310&\253\330\263\243\277\201k\331T\022b\245\277\2010\300+\323h\243?\327\3349eG\213\002@\366\370\033\332f1\336\277]\245\367\341v\026\305?]\245\367\341v\026\305?\235\010ZE\374\301\336?e\350\017\3313}\324?\"\310&\253\330\263\243\2775k\331T\022b\245\277\2010\300+\323h\243?\327\3349eG\213\002@9>\313_\213\274\340\277]\245\367\341v\026\305?]\245\367\341v\026\305?\233\t\357\243\324\225\336?i\023I\343\340\"\311?E\310&\253\330\263\243\277\246k\331T\022b\245\277\2010\300+\323h\243?\327\3349eG\213\002@|\323e\214/`\342\277]\245\367\341v\026\305?]\245\367\341v\026\305?\210;*$\313A\336?\307\276\t\250\327H\303?\206\310&\253\330\263\243\277\317k\331T\022b\245\277\2010\300+\323h\243?\327\3349eG\213\002@[\274\343\025x\003\344\277]\245\367\341v\026\305?]\245\367\341v\026\305?\311\343\271\367\223\205\333?\361\020\367\255\354\307\341\277\252\312&\253\330\263\243\277Mn\331T\022b\245\277\2010\300+\323h\243?\327\3349eG\213\002@\230`!\354\014\244\345\277]\245\367\341v\026\305?]\245\367\341v\026\305?\211\320\004\010M#\334?}h\211\300\330`\333?/\312&\253\330\263\243\277\324j\331T\022b\245\277\2010\300+\323h\243?\327\3349eG\213\002@\237\244\'b.E\347\277]\245\367\341v\026\305?]\245\367\341v\026\305?L&\256\355\237\177\333?\010\017-\253\360e\256?\257\312&\253\330\263\243\277!l\331T\022b\245\277\2010\300+\323h\243?\327\3349eG\213\002@A\301\360[\242\345\350\277]\245\367\341v\026\305?]\245\367\341v\026\305?\342\224\\\026\204L\333?\3304\261\243\255\035\310?\327\312&\253\330\263\243\277\255k\331T\022b\245\277\2010\300+\323h\243?\327\3349eG\213\002@\253\351\006\031\324\205\352\277]\245\367\341v\026\305?]\245\367\341v\026\305?\256%\216\327\234=\336?\331\265\340\n\231\303\361?\212\310&\253\330\263\243\277lh\331T\022b\245\277\2010\300+\323h\243?\327\3349eG\213\002@\216\245%\004\316(\354\277]\245\367\341v\026\305?]\245\367\341v\026\305?\270\356\214\371#\014\333?\332i\327\207\001\025\346\277\t\313&\253\330\263\243\277\306n\331T\022b\245\277\2010\300+\323h\243?\327\3349eG\213\002@\272Mc\202\227\310\355\277]\245\367\341v\026\305?]\245\367\341v\026\305?n\232cu,\246\334?\202\267!\332\264\361\346?\310\311&\253\330\263\243\277\317i\331T\022b\245\277\2010\300+\323h\243?\327\3349eG\213\002@\256\350\302\257\324i\357\277]\245\367\341v\026\305?]\245\367\341v\026\305?\354\230\302\316\276\302\333?\325(\316u.\022\214\277z\312&\253\330\263\243\277dl\331T\022b\245\277\2010\300+\323h\243?\327\3349eG\213\002@.\367\311\326\n\205\360\277]\245\367\341v\026\305?]\245\367\341v\026\305?^/\277%\300\207\333?\310\216\242\351w\365\306?\251\312&\253\330\263\243\277\265k\331T\022b\245\277\2010\300+\323h\243?\327\3349eG\213\002@Nj\307\347\373T\361\277]\245\367\341v\026\305?]\245\367\341v\026\305?\210\033_\321\307\367\334?\310\r]\031Hg\345?\211\311&\253\330\263\243\277\373i\331T\022b\245\277\2010\300+\323h\243?\327\3349eG\213\002@\274!\347\217\210%\362\277]\245\367\341v\026\305?]\245\367\341v\026\305?&\273\r\354\370\365\334?\372S\256ZzY\317?\212\311&\253\330\263\243\277zk\331T\022b\245\277\2010\300+\323h\243?\327\3349eG\213\002@\204\260Z\021\370\365\362\277]\245\367\341v\026\305?]\245\367\341v\026\305?0\3473L\220\354\335?i\344\264\353\355\362\340?\311\310&\253\330\263\243\277xj\331T\022b\245\277\2010\300+\323h\243?\327\3349eG\213\002@T\343a\233\273\306\363\277]\245\367\341v\026\305?]\245\367\341v\026\305?\003\236&\250\220\227\335?\346\233\3058\272$\303?\013\311&\253\330\263\243\277\320k\331T\022b\245\277\2010\300+\323h\243?\327\3349eG\213\002@\227\311.\324(\227\364\277]\245\367\341v\026\305?]\245\367\341v\026\305?\335E\364\312\317(\334?\370\247\275Rb2\306\277*\312&\253\330\263\243\277\363l\331T\022b\245\277\2010\300+\323h\243?\327\3349eG\213\002@\2015\2345\252f\365\277]\245\367\341v\026\305?]\245\367\341v\026\305?\030\321\312\211\020|\333?\212\'\256Y\023\023\251?\261\312&\253\330\263\243\277+l\331T\022b\245\277\2010\300+\323h\243?\327\3349eG\213\002@\266\"\201\251\2125\366\277]\245\367\341v\026\305?]\245\367\341v\026\305?\322\261\255H\276S\333?V\350\034\307\336\262\311?\321\312&\253\330\263\243\277\241k\331T\022b\245\277\2010\300+\323h\243?\327\3349eG\213\002@,<\027\230\355\003\367\277]\245\367\341v\026\305?]\245\367\341v\026\305?&\276\217\300\3353\333?\275 2*\014\360\312?\352\312&\253\330\263\243\277\231k\331T\022b\245\277\2010\300+\323h\243?\327\3349eG\213\002@\2036\247a\252\321\367\277]\245\367\341v\026\305?]\245\367\341v\026\305?\223\367\224\350\275\271\333?\320u\272<\372\240\331?\201\312&\253\330\263\243\277\355j\331T\022b\245\277\2010\300+\323h\243?\327\3349eG\213\002@\311\341\325d\306\236\370\277]\245\367\341v\026\305?]\245\367\341v\026\305?\024d\245k\tZ\333?6S\005\027\224\222\301?\314\312&\253\330\263\243\277\333k\331T\022b\245\277\2010\300+\323h\243?\327\3349eG\213\002@\225\317c\306Pj\371\277]\245\367\341v\026\305?]\245\367\341v\026\305?\346\266\014\206i\367\333?\314\217\251\376\266\200\331?Q\312&\253\330\263\243\277\357j\331T\022b\245\277\2010\300+\323h\243?g^\332l\216\272\333\277\n\207\336Ng\020\365?]\245\367\341v\026\305?]\245\367\341v\026\305?N\373\312\003\357\027\334?G;\256Zy1\322?8\312&\253\330\263\243\277Vk\331T\022b\245\277\2010\300+\323h\243?F\033\377=\267\272\333\277\275l\341U\232?\364?]\245\367\341v\026\305?]\245\367\341v\026\305?\375\317\357L\241h\336?\235\226\210\332\372\244\355?h\310&\253\330\263\243\277\022i\331T\022b\245\277\2010\300+\323h\243?\005\236\253\215m\273\333\277\366-\"b\255m\363?]\245\367\341v\026\305?]\245\367\341v\026\305?\210\351T\265\270\357\333?O\213e\277\306\237\336\277W\312&\253\330\263\243\277\007n\331T\022b\245\277\2010\300+\323h\243?K\257\000\214\335\273\333\2776/\242\251\364\234\362?]\245\367\341v\026\305?]\245\367\341v\026\305?\211f\207\327\006L\336?/\201\262\220\375\021\356?~\310&\253\330\263\243\277\006i\331T\022b\245\277\2010\300+\323h\243?\354\r7\037I\274\333\277\373\263\305Z\026\313\361?]\245\367\341v\026\305?]\245\367\341v\026\305?\306\352\001\231W\341\334?\360\242\246\230\215\231\305\277\232\311&\253\330\263\243\277\360l\331T\022b\245\277\2010\300+\323h\243?\320\220\202>\270\274\333\277[\227Y\335\350\371\360?]\245\367\341v\026\305?]\245\367\341v\026\305?\246wN~2\014\335?\365\2668\360\213\363\322?y\311&\253\330\263\243\277Kk\331T\022b\245\277\2010\300+\323h\243?\037\245\007\026\037\275\333\277\321\025.\361\246(\360?]\245\367\341v\026\305?]\245\367\341v\026\305?~\262\206\244Eo\334?\251\260\367\221\037.\261?\363\311&\253\330\263\243\277\033l\331T\022b\245\277\2010\300+\323h\243?4rUW\003\275\333\277{\275\357\223c\257\356?]\245\367\341v\026\305?]\245\367\341v\026\305?\\\202\037K3Y\334?\034lM3Z`\314?\005\312&\253\330\263\243\277\216k\331T\022b\245\277\2010\300+\323h\243?\252P)>\"\275\333\2774\352\245\251\217\r\355?]\245\367\341v\026\305?]\245\367\341v\026\305?e\345\325\375;E\334?\365\265N\226q\257\314?\024\312&\253\330\263\243\277\214k\331T\022b\245\277\2010\300+\323h\243?\261\307b\014\211\275\333\277\267\373?$\320k\353?]\245\367\341v\026\305?]\245\367\341v\026\305?\350\272j\276.m\334?\236\001\325d\364\274\322?\365\311&\253\330\263\243\277Nk\331T\022b\245\277\2010\300+\323h\243?\266\301Z\336}\275\333\277\363\370\231\310\352\311\351?]\245\367\341v\026\305?]\245\367\341v\026\305?\3277(q\327&\335?5N,\215\201m\335?c\311&\253\330\263\243\277\270j\331T\022b\245\277\2010\300+\323h\243?\257R\216\022\271\275\333\277\265e`\346Q\'\350?]\245\367\341v\026\305?]\245\367\341v\026\305?\300\031\177\021\314|\336?\036;\322\ror\344?X\310&\253\330\263\243\277\026j\331T\022b\245\277\2010\300+\323h\243?f\025(\003\353\275\333\277RV\327\203m\203\346?]\245\367\341v\026\305?]\245\367\341v\026\305?S\233\3021\177l\336?\223\236\206G\"9\315?e\310&\253\330\263\243\277\211k\331T\022b\245\277\2010\300+\323h\243?\256Y?K\356\276\333\277\232\263\3358\232\337\344?]\245\367\341v\026\305?]\245\367\341v\026\305?\377\225\330\254\006\"\334?\r/FA\2447\333\277/\312&\253\330\263\243\277\327m\331T\022b\245\277\2010\300+\323h\243?\203\322J\204\021\277\333\277\225`}\300\002>\343?]\245\367\341v\026\305?]\245\367\341v\026\305?X^-\342\220e\336?#\243\313go)\355?j\310&\253\330\263\243\277 i\331T\022b\245\277\2010\300+\323h\243?\341\305\2471\037\277\333\277\276d\t\3478\232\341?]\245\367\341v\026\305?]\245\367\341v\026\305?\254\324\307\205\333\341\336?\334\253\307n\373\354\330?\t\310&\253\330\263\243\277\367j\331T\022b\245\277\2010\300+\323h\243?\256\347Tu\211\277\333\277\267\353\002E\357\353\337?]\245\367\341v\026\305?]\245\367\341v\026\305?{\241H\211.\353\335?\334\377\247\234bP\242\277\312\310&\253\330\263\243\277wl\331T\022b\245\277\2010\300+\323h\243?i\302@3\242\277\333\277x\326\377\321O\245\334?]\245\367\341v\026\305?]\245\367\341v\026\305?^\250\350h\245\021\336?\336\031\r\000\026\241\322?\254\310&\253\330\263\243\277Pk\331T\022b\245\277\2010\300+\323h\243?\205Zr\336\002\300\333\277$=\262\354h^\331?]\245\367\341v\026\305?]\245\367\341v\026\305?\233\242\030i\205\214\334?8\321\253\261\261z\311\277\334\311&\253\330\263\243\277\013m\331T\022b\245\277\2010\300+\323h\243?\232\301\3741\377\277\333\277\205\355H\252z\032\326?]\245\367\341v\026\305?]\245\367\341v\026\305?yU\271\202\230\027\334?\023}\334\345\005\353\274?8\312&\253\330\263\243\277\361k\331T\022b\245\277\2010\300+\323h\243?\027_\227\270\254\277\333\277F\177\373\271s\327\322?]\245\367\341v\026\305?]\245\367\341v\026\305?\213\375\347\266W\230\334?r\250|\r\250@\331?\323\311&\253\330\263\243\277\362j\331T\022b\245\277\2010\300+\323h\243?\313>\347\213\313\277\333\277\234\325D\353\354&\317?]\245\367\341v\026\305?]\245\367\341v\026\305?\322n\226l\325\240\335?\346\0063\254\003\233\341?\004\311&\253\330\263\243\277fj\331T\022b\245\277\2010\300+\323h\243?\036$>\371\235\277\333\277\007\353\251@\366\232\310?]\245\367\341v\026\305?]\245\367\341v\026\305?H?\307\371h\016\335?\330\264\223\004\010C\264?w\311&\253\330\263\243\277\020l\331T\022b\245\277\2010\300+\323h\243?\246=w!\266\277\333\2771A\331\341B\021\302?]\245\367\341v\026\305?]\245\367\341v\026\305?\024\3210}n!\335?\237\345\333\237\3573\321?g\311&\253\330\263\243\277dk\331T\022b\245\277\2010\300+\323h\243?\221\334\316\215\002\300\333\277Vn\357\300\237\016\267?]\245\367\341v\026\305?]\245\367\341v\026\305?\203S\307\223\272\345\334?.#s\330\337\332\306?\226\311&\253\330\263\243\277\266k\331T\022b\245\277\2010\300+\323h\243?\231\363\006\202\276\277\333\277\217.\267cA\371\243?]\245\367\341v\026\305?]\245\367\341v\026\305?-\005\343\016\370X\336?\013wR1m\205\345?t\310&\253\330\263\243\277\367i\331T\022b\245\277\2010\300+\323h\243?\320\377\360(\336\277\333\277Y\353%\350s\004\211\277]\245\367\341v\026\305?]\245\367\341v\026\305?\274\272\232&\246\250\336?L\274?l%\247\325?6\310&\253\330\263\243\277%k\331T\022b\245\277\2010\300+\323h\243?%0\275\372\371\277\333\277HY\003\r\017@\260\277]\245\367\341v\026\305?]\245\367\341v\026\305?\211U\211\373U\033\333?\203%\311\010ms\351\277\375\312&\253\330\263\243\277%o\331T\022b\245\277\2010\300+\323h\243?c\273\300\034\251\277\333\277\260N\212S\320C\275\277]\245\367\341v\026\305?]\245\367\341v\026\305?\343\"\207\332\032\365\333?Z\341)C\216\310\337?R\312&\253\330\263\243\277\226j\331T\022b\245\277\2010\300+\323h\243?\320\032\014m\211\277\333\277y\266\017Z\010\'\305\277]\245\367\341v\026\305?]\245\367\341v\026\305?r\361\226\353FZ\335?%\020\322\240R\001\345?;\311&\253\330\263\243\277\006j\331T\022b\245\277\2010\300+\323h\243?\000?\220\247\251\277\333\277\233r]\302\204\261\313\277]\245\367\341v\026\305?]\245\367\341v\026\305?\357\277\271\253T\363\335?\371^G\353\'\t\333?\303\310&\253\330\263\243\277\331j\331T\022b\245\277\2010\300+\323h\243?\272\366\033\372\376\277\333\277\345Dj\321 \037\321\277]\245\367\341v\026\305?]\245\367\341v\026\305?F}\320\242$6\333?s#?\223\r\321\341\277\350\312&\253\330\263\243\277Nn\331T\022b\245\277\2010\300+\323h\243?\273\024\232\245\211\277\333\277\203\032TR!`\324\277]\245\367\341v\026\305?]\245\367\341v\026\305?\014\352\177\215\346\214\336?9~\001\322\351\240\363?L\310&\253\330\263\243\277\002h\331T\022b\245\277\2010\300+\323h\243?\241!\370\261\211\277\333\277\031\334\365\231\224\247\327\277]\245\367\341v\026\305?]\245\367\341v\026\305?\336)<\331\025\205\336?v\263\263\023\330w\316?R\310&\253\330\263\243\277\200k\331T\022b\245\277\2010\300+\323h\243?e\361\344;\257\277\333\277\340\244W\364\353\356\332\277]\245\367\341v\026\305?]\245\367\341v\026\305?\302D/K\241\243\336?\311\365\260rY\014\322?:\310&\253\330\263\243\277Xk\331T\022b\245\277\2010\300+\323h\243?\016%U\033$\300\333\277\360\222\272\212p6\336\277]\245\367\341v\026\305?]\245\367\341v\026\305?\023Bi\232\260(\333?4\257d\263\345\306\350\277\362\312&\253\330\263\243\277\022o\331T\022b\245\277\2010\300+\323h\243?\321\355\003\243\240\277\333\277\031\262\200\236\220\273\340\277]\245\367\341v\026\305?]\245\367\341v\026\305?;\201\024\256\312.\334?X\232\3168\224\204\341?&\312&\253\330\263\243\277hj\331T\022b\245\277\2010\300+\323h\243?\013\327\026\322~\277\333\277\307i\370\003\337\\\342\277]\245\367\341v\026\305?]\245\367\341v\026\305?U+`\303W?\336?\345\003o\347\241J\353?\210\310&\253\330\263\243\277Ti\331T\022b\245\277\2010\300+\323h\243?\210\210\267\216\326\277\333\277\375\223\031A%\000\344\277]\245\367\341v\026\305?]\245\367\341v\026\305?\264\305\326O\331t\335?$y\243\343\362v\216?\'\311&\253\330\263\243\277Il\331T\022b\245\277\2010\300+\323h\243?\222:\n\372\355\277\333\277PY;y\233\242\345\277]\245\367\341v\026\305?]\245\367\341v\026\305?\250\\\013\276A\321\333?\275\253u\256\024\363\315\277o\312&\253\330\263\243\277*m\331T\022b\245\277\2010\300+\323h\243?\007\364\3138\010\300\333\277h>\177CmC\347\277]\245\367\341v\026\305?]\245\367\341v\026\305?\002*A0v\362\333?\2076\013\"O>\322?T\312&\253\330\263\243\277Uk\331T\022b\245\277\2010\300+\323h\243?\220\205\276\023\005\300\333\277\342\203r\336P\344\350\277]\245\367\341v\026\305?]\245\367\341v\026\305?_\021VntG\334?\306^\362\001\356\n\326?\022\312&\253\330\263\243\277\037k\331T\022b\245\277\2010\300+\323h\243?\311=\201\272-\300\333\277\034m?iv\205\352\277]\245\367\341v\026\305?]\245\367\341v\026\305?\325i-Boa\333?\314>e\306\355\023\221\277\306\312&\253\330\263\243\277fl\331T\022b\245\277\2010\300+\323h\243?\366\357\311m\300\277\333\277N\377\274J\251%\354\277]\245\367\341v\026\305?]\245\367\341v\026\305?n@|\253C\202\335?\263\323\'\232~\343\353?\034\311&\253\330\263\243\277Di\331T\022b\245\277\2010\300+\323h\243?g[\311\014\224\277\333\277\n\367U\306\326\307\355\277]\245\367\341v\026\305?]\245\367\341v\026\305?>\326\205\204\240\375\332?\307\256g\367\014|\337\277\024\313&\253\330\263\243\277\024n\331T\022b\245\277\2010\300+\323h\243?\005\364\272\3369\277\333\277]I\341\350wg\357\277]\245\367\341v\026\305?]\245\367\341v\026\305?\342\205\346\004S\004\336?\235\230\2500\004)\362?\266\310&\253\330\263\243\277Vh\331T\022b\245\277\2010\300+\323h\243?\245\355D\264O\277\333\277\347\240\320\306\364\204\360\277]\245\367\341v\026\305?]\245\367\341v\026\305?W\3323\032\030\363\333?\367\021\257%\237\004\327\277T\312&\253\330\263\243\277\234m\331T\022b\245\277\2010\300+\323h\243?DKO(6\277\333\277\366(\177\351\031U\361\277]\245\367\341v\026\305?]\245\367\341v\026\305?(\026\212C@\306\335?\r\205\rg\036\n\351?\347\310&\253\330\263\243\277\224i\331T\022b\245\277\2010\300+\323h\243?8\307\256\243x\277\333\277YP\235\244\n&\362\277]\245\367\341v\026\305?]\245\367\341v\026\305?E+\335\331p\261\333?\262\312\227\230\333G\327\277\207\312&\253\330\263\243\277\240m\331T\022b\245\277\2010\300+\323h\243?\276\267\037\360\207\277\333\277\032fW\330\334\365\362\277]\245\367\341v\026\305?]\245\367\341v\026\305?MLM<\364\320\334?\334\245\270a3s\342?\247\311&\253\330\263\243\277Nj\331T\022b\245\277\2010\300+\323h\243?\200\233\363LM\277\333\277\272y\364\032\027\306\363\277]\245\367\341v\026\305?]\245\367\341v\026\305?\274\023\r\340\316\222\333?c\nD#=!\276\277\240\312&\253\330\263\243\277\301l\331T\022b\245\277\2010\300+\323h\243?\230~3\323\t\277\333\277\237q\333\215\212\225\364\277]\245\367\341v\026\305?]\245\367\341v\026\305?\262\016Hj\321\377\336?\022f\200{d\t\364?\361\307&\253\330\263\243\277\353g\331T\022b\245\277\2010\300+\323h\243?I\'\360\265y\277\333\277\245\245\214\241kf\365\277]\245\367\341v\026\305?]\245\367\341v\026\305?\203\034\253\310\220h\334?\240!.\010\324l\340\277\370\311&\253\330\263\243\277\'n\331T\022b\245\277\2010\300+\323h\243?\372P\314\\8\277\333\277\303kt<\2765\366\277]\245\367\341v\026\305?]\245\367\341v\026\305?\326=\237\251\362)\336?\366F\326\2375c\350?\231\310&\253\330\263\243\277\246i\331T\022b\245\277\2010\300+\323h\243?\332\027\237nl\277\333\277\206Kch~\005\367\277]\245\367\341v\026\305?]\245\367\341v\026\305?\000\312P\261\323\377\333?\313\363\004\332\026\330\330\277J\312&\253\330\263\243\277\265m\331T\022b\245\277\2010\300+\323h\243?\'H\333\322\010\277\333\277b\330\371\230\233\323\367\277]\245\367\341v\026\305?]\245\367\341v\026\305?\231\360\371\323\264\010\336?\017\225\322\273\227\002\353?\263\310&\253\330\263\243\277\\i\331T\022b\245\277\2010\300+\323h\243?\017r\3208B\277\333\277\375Z~\312\316\241\370\277]\245\367\341v\026\305?]\245\367\341v\026\305?\2579\315q\357\217\335?\017\203\034\256 \312\273?\021\311&\253\330\263\243\277\365k\331T\022b\245\277\2010\300+\323h\243?\273\376\236\311Z\277\333\277b`\321\347]n\371\277]\245\367\341v\026\305?]\245\367\341v\026\305?\005\003\357\376\370\027\336?\r\222\267c\223\311\331?\247\310&\253\330\263\243\277\353j\331T\022b\245\277\2010\300+\323h\243?\3752\270a\264\277\333\277^\200\231\221\2748\372\277$\005\000\036\215G\030\300$\005\000\036\215G\030\300\277\230K\262\304\257\334?R\301X)d<\305\277\300\311&\253\330\263\243\277\355l\331T\022b\245\277\2010\300+\323h\243?c.\271&[\277\333\277C\033\324\020\301\375\372\277$\005\000\036\215G\030\300$\005\000\036\215G\030\300\014e_v<\037\333?\024\302R\341)\'\313\277\372\312&\253\330\263\243\277\026m\331T\022b\245\277\2010\300+\323h\243?\024\337\332\264\037\277\333\2773\372$\203w\267\373\277$\005\000\036\215G\030\300$\005\000\036\215G\030\300\255 \026\340\253\202\334?\237f\333+\003\361\344?\344\311&\253\330\263\243\277\010j\331T\022b\245\277\2010\300+\323h\243?g\224\345\265Y\277\333\277\n&\031\264}S\374\277$\005\000\036\215G\030\300$\005\000\036\215G\030\300\330\341\000\010p\373\336?\325\273\003\352?\035\357?\365\307&\253\330\263\243\277\350h\331T\022b\245\277\2010\300+\323h\243?\204b\357\027[\277\333\277\036\300\347\363\n\220\374\277$\005\000\036\215G\030\300$\005\000\036\215G\030\300\223\r\351\017*\340\335?0\031\344\007\202\345\263\277\323\310&\253\330\263\243\277\235l\331T\022b\245\277\2010\300+\323h\243?\217\264\226i\274\277\333\277\216\300\366\226\3004\374\277$\005\000\036\215G\030\300$\005\000\036\215G\030\300\3761\300\014M\327\336?O \214\355\014\370\340?\021\310&\253\330\263\243\277xj\331T\022b\245\277\2010\300+\323h\243?\353-&n\315\277\333\277<k-\211g\215\373\277$\005\000\036\215G\030\300$\005\000\036\215G\030\300\230\315\005\2755T\335?\277\306\211\352K.\311\277@\311&\253\330\263\243\277\010m\331T\022b\245\277\2010\300+\323h\243?x\203#-\241\277\333\277\245D!bB\317\372\277]\245\367\341v\026\305?]\245\367\341v\026\305?C\266\2734\270D\336?\034\335\343\377\321\271\340?\204\310&\253\330\263\243\277\177j\331T\022b\245\277\2010\300+\323h\243?\2110\225\'\031\300\333\2772U\307\354\014\010\372\277]\245\367\341v\026\305?]\245\367\341v\026\305?\357\336\020O\271L\336?g(\274M\006e\320?~\310&\253\330\263\243\277pk\331T\022b\245\277\2010\300+\323h\243?)\177\247\366m\300\333\277f<v\342\331<\371\277]\245\367\341v\026\305?]\245\367\341v\026\305?\0062\245\375\310\273\335?\301\177\014\200\224\262\264?\357\310&\253\330\263\243\277\016l\331T\022b\245\277\2010\300+\323h\243?X\256\266.C\300\333\277b\026\232v\314o\370\277]\245\367\341v\026\305?]\245\367\341v\026\305?\177\233\335\304\024y\334?\005\232a\031\247w\277\277\354\311&\253\330\263\243\277\306l\331T\022b\245\277\2010\300+\323h\243?[z\n\336M\300\333\277B#2\025\030\242\367\277]\245\367\341v\026\305?]\245\367\341v\026\305?\324\245\306\353:\276\333?a\r\023.\007\314\240?~\312&\253\330\263\243\2779l\331T\022b\245\277\2010\300+\323h\243?<\337%^R\300\333\277l\237\276\221\360\323\366\277]\245\367\341v\026\305?]\245\367\341v\026\305?\222\004]5j\277\333?\314\343\023J\345\311\317?|\312&\253\330\263\243\277vk\331T\022b\245\277\2010\300+\323h\243?\301\202\206FU\300\333\277\177\260\340\277=\005\366\277]\245\367\341v\026\305?]\245\367\341v\026\305?\371_L\305\350\205\335?h|$\2416\223\350?\031\311&\253\330\263\243\277\241i\331T\022b\245\277\2010\300+\323h\243?\032\220\333[\253\300\333\277x\\\001\353L5\365\277]\245\367\341v\026\305?]\245\367\341v\026\305?\270\354\361\351\344\001\337?\023a\245\007\213\327\345?\360\307&\253\330\263\243\277\356i\331T\022b\245\277\2010\300+\323h\243?\363y5;E\301\333\277\346\355\222w[d\364\277]\245\367\341v\026\305?]\245\367\341v\026\305?:e\375\353Q\261\334?\362z\365\233D\252\333\277\300\311&\253\330\263\243\277\336m\331T\022b\245\277\2010\300+\323h\243?\374C\344\241\001\301\333\277\260\265\377\246Q\224\363\277]\245\367\341v\026\305?]\245\367\341v\026\305?\213\356\305p\264\300\336?\240\356\340F\256?\353?#\310&\253\330\263\243\277Vi\331T\022b\245\277\2010\300+\323h\243?sf\252F\371\300\333\277\3054a\370\035\303\362\277]\245\367\341v\026\305?]\245\367\341v\026\305?\241\341\000\273\264\023\336?\030\371/0?\355\250?\252\310&\253\330\263\243\277+l\331T\022b\245\277\2010\300+\323h\243?\310\223\373\314\365\300\333\277\013\342*v\034\362\361\277]\245\367\341v\026\305?]\245\367\341v\026\305?\307\217G,\205\310\335?8\"\314\247O\225\304?\345\310&\253\330\263\243\277\306k\331T\022b\245\277\2010\300+\323h\243?\313\316\364O,\301\333\277\320\220\233t$!\361\277]\245\367\341v\026\305?]\245\367\341v\026\305?\263xa\025e\353\336?\213m1\007\304\222\342?\001\310&\253\330\263\243\277Jj\331T\022b\245\277\2010\300+\323h\243?!\222\340\022\270\301\333\277?\324\363]\211O\360\277]\245\367\341v\026\305?]\245\367\341v\026\305?\201\001\002 \223\324\335?\237\376\344-\371\226\262\277\334\310&\253\330\263\243\277\231l\331T\022b\245\277\2010\300+\323h\243?~\222\262Q\002\302\333\277A\230\305\317\306\374\356\277]\245\367\341v\026\305?]\245\367\341v\026\305?kQW\373\264\025\335?\310\256%y\014\341\234?q\311&\253\330\263\243\277>l\331T\022b\245\277\2010\300+\323h\243?[\311T\0243\302\333\277\205a\013\370\025[\355\277]\245\367\341v\026\305?]\245\367\341v\026\305?\037|\256\230\322\204\335?$=w\240\207\365\327?\032\311&\253\330\263\243\277\004k\331T\022b\245\277\2010\300+\323h\243?m\3378\255\t\302\333\277\366V\344\304\337\270\353\277]\245\367\341v\026\305?]\245\367\341v\026\305?\025\247qt`I\333?\t\267\345\211v\035\332\277\331\312&\253\330\263\243\277\310m\331T\022b\245\277\2010\300+\323h\243?\226&\t{\366\301\333\277\'\202&\365\276\030\352\277]\245\367\341v\026\305?]\245\367\341v\026\305?K\312\226\371\301=\336?+I\017\226\004\323\361?\212\310&\253\330\263\243\277ih\331T\022b\245\277\2010\300+\323h\243?\311\020\213f\025\302\333\277\227\234\321\325\254u\350\277]\245\367\341v\026\305?]\245\367\341v\026\305?0\032\3725\360\032\334?\2661\032\325\365N\330\2775\312&\253\330\263\243\277\256m\331T\022b\245\277\2010\300+\323h\243?\301\332#\303\253\301\333\277@\302m\336\235\324\346\277]\245\367\341v\026\305?]\245\367\341v\026\305?\357\276\341\223\026\360\336?C\003]\352a@\361?\376\307&\253\330\263\243\277\211h\331T\022b\245\277\2010\300+\323h\243?F\270\'x/\302\333\277\373_\325@\3000\345\277]\245\367\341v\026\305?]\245\367\341v\026\305?\354,\344\375\ne\333?\033\244\272(!^\351\277\303\312&\253\330\263\243\277#o\331T\022b\245\277\2010\300+\323h\243?\304\315\304<\035\302\333\277\002\234&\322G\220\343\277]\245\367\341v\026\305?]\245\367\341v\026\305?\237\200g\206\337\354\336?-\361\251\213Q\207\364?\001\310&\253\330\263\243\277\317g\331T\022b\245\277\2010\300+\323h\243?u1W\220U\302\333\277E\263\030$V\354\341\277]\245\367\341v\026\305?]\245\367\341v\026\305?\256N\342^}\023\333?\235~\005\266\300=\354\277\003\313&\253\330\263\243\277to\331T\022b\245\277\2010\300+\323h\243?`\224\243\320\354\301\333\277QH\367\254\030L\340\277]\245\367\341v\026\305?]\245\367\341v\026\305?h\224\243\\\004\341\336?\266\323s\021\217\316\365?\t\310&\253\330\263\243\277\207g\331T\022b\245\277\2010\300+\323h\243?\300\321\373\342|\302\333\277r\374@\266@P\335\277]\245\367\341v\026\305?]\245\367\341v\026\305?\346\315\277,\201N\334?\317\301\225[Q@\340\277\r\312&\253\330\263\243\277\"n\331T\022b\245\277\2010\300+\323h\243?>\370\235\360\201\302\333\277m\214\031(A\r\332\277]\245\367\341v\026\305?]\245\367\341v\026\305?\267,\023\253O\210\333?\313\227\344\345\301G\224?\250\312&\253\330\263\243\277El\331T\022b\245\277\2010\300+\323h\243?3\377\035\312m\302\333\277\261\035\204c\265\313\326\277]\245\367\341v\026\305?]\245\367\341v\026\305?.Sj\332\317r\335?\204\023\001eS\345\351?(\311&\253\330\263\243\277|i\331T\022b\245\277\2010\300+\323h\243?\035\304;\355^\302\333\277\252\t\354\214c\206\323\277]\245\367\341v\026\305?]\245\367\341v\026\305?*/\274\216/\342\334?\317\317S\003\020\312\264?\231\311&\253\330\263\243\277\rl\331T\022b\245\277\2010\300+\323h\243?[epw)\302\333\277\264x\207\325\037B\320\277]\245\367\341v\026\305?]\245\367\341v\026\305?r\027f\376\311Z\336?\030\365\216\273\311\267\345?s\310&\253\330\263\243\277\362i\331T\022b\245\277\2010\300+\323h\243?\362D\275\215g\302\333\277m$\3048\353\365\311\277]\245\367\341v\026\305?]\245\367\341v\026\305?\034\035\023H\301\177\336?\323e\201\374\361\204\322?V\310&\253\330\263\243\277Rk\331T\022b\245\277\2010\300+\323h\243?\r\001\022H\356\302\333\277\246\024\340\210\364f\303\277]\245\367\341v\026\305?]\245\367\341v\026\305?\030\376r\337)\263\333?\303\325<C\263a\342\277\206\312&\253\330\263\243\277^n\331T\022b\245\277\2010\300+\323h\243?$#6\244\241\302\333\277\250\243:\022\241\305\271\277]\245\367\341v\026\305?]\245\367\341v\026\305?\277\277\317\254\031u\335?\224\204\035Vjh\350?&\311&\253\330\263\243\277\245i\331T\022b\245\277\2010\300+\323h\243?\010\345I\345r\302\333\277&=C\034\034_\251\277]\245\367\341v\026\305?]\245\367\341v\026\305?8\'+c\322\220\334?I\233\237l\032\021\216\277\331\311&\253\330\263\243\277dl\331T\022b\245\277\2010\300+\323h\243? \246\006\302\240\302\333\277\327\213\\\314=\354W?]\245\367\341v\026\305?]\245\367\341v\026\305?\303\226hE\311@\334?\333\021\024\360$\337\303?\027\312&\253\330\263\243\277\313k\331T\022b\245\277\2010\300+\323h\243?\030lD\333@\302\333\277\'\335\027\3775\331\252?]\245\367\341v\026\305?]\245\367\341v\026\305?\r\261ZU6\226\334?\234\362;H\017\023\326?\324\311&\253\330\263\243\277\037k\331T\022b\245\277\2010\300+\323h\243?\357I\247\021\t\302\333\2772\322si5|\272?]\245\367\341v\026\305?]\245\367\341v\026\305?G\224\"u\3435\333?\370\254\021\333b\024\304\277\350\312&\253\330\263\243\277\345l\331T\022b\245\277\2010\300+\323h\243?8A\375\320\341\301\333\277\306\207]#\230\300\303?]\245\367\341v\026\305?]\245\367\341v\026\305?;\312\td\332W\335?\356\317\276\264&\356\353?=\311&\253\330\263\243\277Bi\331T\022b\245\277\2010\300+\323h\243?I\351\246_\362\301\333\277!h/\313kK\312?]\245\367\341v\026\305?]\245\367\341v\026\305?`\256\325\313\213\250\334?\266&\316Su\222\247?\307\311&\253\330\263\243\277.l\331T\022b\245\277\2010\300+\323h\243?\250\366\365\251\035\302\333\277\"\207Gh\317i\320?]\245\367\341v\026\305?]\245\367\341v\026\305?~B\247|b&\333?\325\035b7`\013\311\277\364\312&\253\330\263\243\277\010m\331T\022b\245\277\2010\300+\323h\243?\313\247\215t\255\301\333\277z`\257\014\376\252\323?]\245\367\341v\026\305?]\245\367\341v\026\305?\333\007\272@\252q\335?\215v$\360\036r\355?)\311&\253\330\263\243\277\030i\331T\022b\245\277\2010\300+\323h\243?\245\023\tf\237\301\333\277\336N\021>\247\360\326?]\245\367\341v\026\305?]\245\367\341v\026\305?\241\335Z7V\006\335?\304\300\246z\374\273\277?}\311&\253\330\263\243\277\347k\331T\022b\245\277\2010\300+\323h\243?\302\361r\253W\301\333\277\005Ivo\2035\332?]\245\367\341v\026\305?]\245\367\341v\026\305?Y\r\331\333\220\021\335?I\320)\207\226\241\320?t\311&\253\330\263\243\277lk\331T\022b\245\277\2010\300+\323h\243?=`\226\365U\301\333\277\3342\255\004yz\335?]\245\367\341v\026\305?]\245\367\341v\026\305?0\026\303\310\265\352\335?W\337\236^\322\274\337?\312\310&\253\330\263\243\277\227j\331T\022b\245\277\2010\300+\323h\243?\332\257^\006C\301\333\277\236\254\367/\214`\340?]\245\367\341v\026\305?]\245\367\341v\026\305?h\0038\247\257\023\335?9\263\364M\'\312@?r\311&\253\330\263\243\277Vl\331T\022b\245\277\2010\300+\323h\243?\036\t\321\035X\301\333\277\3512\313@\014\003\342?]\245\367\341v\026\305?]\245\367\341v\026\305?\220\225F\024\n$\334?/\372\000E\241`\234\277.\312&\253\330\263\243\277pl\331T\022b\245\277\2010\300+\323h\243?I\267r\223m\301\333\277\304\270\346\245\244\244\343?]\245\367\341v\026\305?]\245\367\341v\026\305?\250\346\242\013\250R\335?\212B\245\366\007\001\343?B\311&\253\330\263\243\277?j\331T\022b\245\277\2010\300+\323h\243?\341-\315\314J\301\333\277\237\254\027\312dG\345?]\245\367\341v\026\305?]\245\367\341v\026\305?\201\370\220\027f\310\333?%\360\240\257{;\312\277v\312&\253\330\263\243\277\021m\331T\022b\245\277\2010\300+\323h\243?k:qPR\301\333\277k?\241\255\246\350\346?]\245\367\341v\026\305?]\245\367\341v\026\305?^\360\264\303AV\333?\257\336\037] \274\275?\317\312&\253\330\263\243\277\356k\331T\022b\245\277\2010\300+\323h\243?\262\3279\202\002\301\333\277\315\307\270\272z\211\350?]\245\367\341v\026\305?]\245\367\341v\026\305?qG\274\364W@\335?\031)#\024p\341\351?O\311&\253\330\263\243\277|i\331T\022b\245\277\2010\300+\323h\243?\254\376\263\303\305\300\333\277\257\244\t\257,,\352?]\245\367\341v\026\305?]\245\367\341v\026\305?\376#\354\272\036\272\336?\377ep\003\316\302\345?(\310&\253\330\263\243\277\361i\331T\022b\245\277\2010\300+\323h\243?\036>\345\273$\301\333\277!=H;O\320\353?]\245\367\341v\026\305?]\245\367\341v\026\305?\037Mr\252\231P\333?D\177a8P#\350\277\323\312&\253\330\263\243\277\001o\331T\022b\245\277\2010\300+\323h\243?\205=G\253\365\300\333\277E\303\230\377 q\355?]\245\367\341v\026\305?]\245\367\341v\026\305?\023%\363\274m1\336?\266.\252\0357w\361?\223\310&\253\330\263\243\277|h\331T\022b\245\277\2010\300+\323h\243?\276\005I\"\346\300\333\277\237F\202\214\300\024\357?]\245\367\341v\026\305?]\245\367\341v\026\305?T\373]\347\315\333\335?\220\250G 9\r\303?\326\310&\253\330\263\243\277\321k\331T\022b\245\277\2010\300+\323h\243?\360\252\216\177\n\301\333\277\212\250+\333\006\\\360?]\245\367\341v\026\305?]\245\367\341v\026\305?\0203\200\361\023\177\333?\016\237\271\320~\216\334\277\257\312&\253\330\263\243\277\352m\331T\022b\245\277\2010\300+\323h\243?\005jk\346\021\301\333\277\306ja\265\207,\361?]\245\367\341v\026\305?]\245\367\341v\026\305?\363I\307\341\3524\336?&\333\337\014`\255\360?\220\310&\253\330\263\243\277\251h\331T\022b\245\277\2010\300+\323h\243?\214\300\300\334g\301\333\277A\255\216zZ\376\361?]\245\367\341v\026\305?]\245\367\341v\026\305?\035\276U(pb\336?S\223\033\205\233%\323?m\310&\253\330\263\243\277Hk\331T\022b\245\277\2010\300+\323h\243?z\247\207\257\250\301\333\277 j9\310C\320\362?]\245\367\341v\026\305?]\245\367\341v\026\305?eFg\367\375\344\335?\343\277\020\023\355j\272?\317\310&\253\330\263\243\277\372k\331T\022b\245\277\2010\300+\323h\243?XF\255\021\315\301\333\277\222\365\350n\360\241\363?]\245\367\341v\026\305?]\245\367\341v\026\305?Y#%\020\251O\335?\240\247^q\222h\263?D\311&\253\330\263\243\277\023l\331T\022b\245\277\2010\300+\323h\243?C\'AB\230\301\333\277y.#\313Ts\364?]\245\367\341v\026\305?]\245\367\341v\026\305?\014\353+\367\3221\334?\221f\211E\014\246\264\277#\312&\253\330\263\243\277\240l\331T\022b\245\277\2010\300+\323h\243?\257\365\252Y\244\301\333\277\342\367\373p.D\365?]\245\367\341v\026\305?]\245\367\341v\026\305?f\210<\"{p\334?h\2035~pg\324?\362\311&\253\330\263\243\2777k\331T\022b\245\277\2010\300+\323h\243?\307\304\251\207\270\301\333\277\257\330\250\342&\025\366?]\245\367\341v\026\305?]\245\367\341v\026\305?By\024c\034\361\336?\256@\325\235\027g\357?\375\307&\253\330\263\243\277\340h\331T\022b\245\277\2010\300+\323h\243?:\271m\327\266\301\333\277;\311\226EW\347\366?]\245\367\341v\026\305?]\245\367\341v\026\305?\3732\2567G\r\333?i\243\273\016\340\237\354\277\010\313&\253\330\263\243\277\177o\331T\022b\245\277\2010\300+\323h\243?]i\014>u\301\333\277\230*\306\203\243\267\367?]\245\367\341v\026\305?]\245\367\341v\026\305?o)R\317,\231\333?\226m]\201\017\022\332?\233\312&\253\330\263\243\277\347j\331T\022b\245\277\2010\300+\323h\243?\373:9B\202\301\333\277\272L\356\0254\210\370?]\245\367\341v\026\305?]\245\367\341v\026\305?\"j\205\302\231\356\334?+\023A\001um\344?\217\311&\253\330\263\243\277\026j\331T\022b\245\277\2010\300+\323h\243?k\256\n\001^\301\333\277\315&\257\002kY\371?]\245\367\341v\026\305?]\245\367\341v\026\305?\206\372d\304K\325\336?\253\331\361\204\227\301\351?\023\310&\253\330\263\243\277\177i\331T\022b\245\277\2010\300+\323h\243?y\230\213b\337\301\333\277E\366\001\363\216+\372?]\245\367\341v\026\305?]\245\367\341v\026\305?\200\365|#%\007\336?u\334hs0\341\205?\264\310&\253\330\263\243\277Nl\331T\022b\245\277\2010\300+\323h\243?\327V\\y#\302\333\277&\233+\330N\375\372?]\245\367\341v\026\305?]\245\367\341v\026\305?hu\211\257\357p\334?\260H\254\332b\374\313\277\362\311&\253\330\263\243\277\034m\331T\022b\245\277\2010\300+\323h\243?]\231\224\210Y\302\333\277\003\275\210\\I\316\373?]\245\367\341v\026\305?]\245\367\341v\026\305?I[\353,x5\335?`.\254$\2739\336?X\311&\253\330\263\243\277\254j\331T\022b\245\277\2010\300+\323h\243?\'H\365d\251\302\333\277\2202\016\265\243\237\374?]\245\367\341v\026\305?]\245\367\341v\026\305?\026N\373\257\013\206\333?\245\014\357.\177\257\317\277\251\312&\253\330\263\243\2776m\331T\022b\245\277\2010\300+\323h\243?f\242\372\326\205\302\333\277\373$\026c,p\375?]\245\367\341v\026\305?]\245\367\341v\026\305?Q\001b\262Nt\335?r\031\315M\241\\\266\277\'\311&\253\330\263\243\277\246l\331T\022b\245\277\2010\300+\323h\243?\207S\320LRw\337\277\204&\312\034\303g\374?]\245\367\341v\026\305?]\245\367\341v\026\305?\263\003\242\352\250\302\335?;\301\356]6\216\325?\351\310&\253\330\263\243\277\'k\331T\022b\245\277\2010\300+\323h\243?N\363\232\006\264w\337\277\376\350\263#$\226\373?]\245\367\341v\026\305?]\245\367\341v\026\305?\253\204^4J\326\335?\260\352;/]?\321?\332\310&\253\330\263\243\277ck\331T\022b\245\277\2010\300+\323h\243?\237~\266\217\250w\337\277\r<W\327{\304\372?]\245\367\341v\026\305?]\245\367\341v\026\305?Em\342\376\376\357\335?I\0014\244z\261\321?\306\310&\253\330\263\243\277]k\331T\022b\245\277\2010\300+\323h\243?\253`\254\246\356w\337\277\227\275\222E\307\362\371?]\245\367\341v\026\305?]\245\367\341v\026\305?b\035_\310\207\177\334?\3026CU\263r\306\277\346\311&\253\330\263\243\277\366l\331T\022b\245\277\2010\300+\323h\243?\307~\303\366\374w\337\277\307\\y1\306!\371?]\245\367\341v\026\305?]\245\367\341v\026\305?\203QBe\367\266\336?\322\327\017}\306\267\354?+\310&\253\330\263\243\277,i\331T\022b\245\277\2010\300+\323h\243?\267\264\353/\tx\337\277\277\310\364T\261O\370?]\245\367\341v\026\305?]\245\367\341v\026\305?1e\262\301\255\362\334?\231_<7\226_\321\277\214\311&\253\330\263\243\277Lm\331T\022b\245\277\2010\300+\323h\243?\"\235\312\005\rx\337\277\312\225{\302x~\367?]\245\367\341v\026\305?]\245\367\341v\026\305?\316N\262T/\251\333?\304E\270\370\334\272\300\277\216\312&\253\330\263\243\277\315l\331T\022b\245\277\2010\300+\323h\243?\345\335.\013\241w\337\277\231\016v\300\340\255\366?]\245\367\341v\026\305?]\245\367\341v\026\305?5\220V/`\007\335?pq\206\020\304\277\344?|\311&\253\330\263\243\277\rj\331T\022b\245\277\2010\300+\323h\243?\360s`x\307w\337\277\311B\233\256\236\334\365?]\245\367\341v\026\305?]\245\367\341v\026\305?c>2\241|\327\336?,w\237\225\204\355\350?\021\310&\253\330\263\243\277\227i\331T\022b\245\277\2010\300+\323h\243?\230\320X\362\346w\337\277\022\336\216&{\n\365?]\245\367\341v\026\305?]\245\367\341v\026\305?n6\233\355\302a\335?\371P\221]C8\307\2775\311&\253\330\263\243\277\373l\331T\022b\245\277\2010\300+\323h\243?t|\215]\366w\337\277\037W\025\276\r9\364?]\245\367\341v\026\305?]\245\367\341v\026\305?U\212+\356\344\315\336?\372`\203\243\257B\345?\031\310&\253\330\263\243\277\376i\331T\022b\245\277\2010\300+\323h\243?\232\276m\371yx\337\277[/\245\212\357f\363?]\245\367\341v\026\305?]\245\367\341v\026\305?>j\356\264\305\242\334?`\276Tz\343\352\330\277\313\311&\253\330\263\243\277\267m\331T\022b\245\277\2010\300+\323h\243?\307\220\352\'\225x\337\277\034\227\004\274\337\225\362?]\245\367\341v\026\305?]\245\367\341v\026\305?\325)\032\262\355\276\334?\250\300m\335}\337\321?\265\311&\253\330\263\243\277[k\331T\022b\245\277\2010\300+\323h\243?\303\232AV\276x\337\277u\360\234\232\302\304\361?]\245\367\341v\026\305?]\245\367\341v\026\305?6j\316\254w=\336?\237\327\337\310\206\357\345?\212\310&\253\330\263\243\277\353i\331T\022b\245\277\2010\300+\323h\243?\212\021\356\362\022y\337\277\325n\013\311\353\362\360?]\245\367\341v\026\305?]\245\367\341v\026\305?\352\370\003|0\r\333?gg?\036\313\t\346\277\010\313&\253\330\263\243\277\305n\331T\022b\245\277\2010\300+\323h\243?\300\005o=\320x\337\277\313\022\254r\242\"\360?]\245\367\341v\026\305?]\245\367\341v\026\305?\030RI\360Vm\335?X\204\321\257\0306\356?,\311&\253\330\263\243\277\002i\331T\022b\245\277\2010\300+\323h\243?\026\347%\275\350x\337\277n[\235qc\242\356?]\245\367\341v\026\305?]\245\367\341v\026\305?\2308\225\342>\233\335?\354\000\014\241\330,\323?\010\311&\253\330\263\243\277Hk\331T\022b\245\277\2010\300+\323h\243?\323\365\364J\311x\337\277\314\'\265AV\377\354?]\245\367\341v\026\305?]\245\367\341v\026\305?\037\3136\376AL\334?\311F\037\3329\211\301\277\016\312&\253\330\263\243\277\322l\331T\022b\245\277\2010\300+\323h\243?-#\305V\303x\337\277i\377\327\357\217]\353?]\245\367\341v\026\305?]\245\367\341v\026\305?J\262\224\233P8\333?\205\276\304\262\323\276\261\277\347\312&\253\330\263\243\277\226l\331T\022b\245\277\2010\300+\323h\243?e\333\310\241\206x\337\277\374\2259\027\327\274\351?]\245\367\341v\026\305?]\245\367\341v\026\305?r\234$\'KJ\336?\312\344\377\021\374]\362?\177\310&\253\330\263\243\277Jh\331T\022b\245\277\2010\300+\323h\243?\344\266K\031\362x\337\277\242\346<\266\"\031\350?]\245\367\341v\026\305?]\245\367\341v\026\305?\010\335D\004w\023\333?4\316c<NG\346\277\003\313&\253\330\263\243\277\314n\331T\022b\245\277\2010\300+\323h\243?\337\3501\031\227x\337\277\207\177\361\363\217x\346?]\245\367\341v\026\305?]\245\367\341v\026\305?\370\332\366(\237d\334?\244A\334\314fo\343?\374\311&\253\330\263\243\2772j\331T\022b\245\277\2010\300+\323h\243?/\207s\335Vs\337\277\260r\216\310\034\311\372?]\245\367\341v\026\305?]\245\367\341v\026\305?\201p\352\036\210\033\336?\236l$\331\336\000\350?\244\310&\253\330\263\243\277\261i\331T\022b\245\277\2010\300+\323h\243?G6z\200\301s\337\277\303\033\257\007S\367\371?]\245\367\341v\026\305?]\245\367\341v\026\305?\026\226\267\177\334\326\335?\377\231\304\301\221E\357?\332\310&\253\330\263\243\277\344h\331T\022b\245\277\2010\300+\323h\243?\026~Y\027\274x\337\277\025Ip\246#\221\341?]\245\367\341v\026\305?]\245\367\341v\026\305?\271\243x[\377E\334?\013s\327\313nw\342?\024\312&\253\330\263\243\277Mj\331T\022b\245\277\2010\300+\323h\243?\022\310\364\247Js\337\277\257$\362,\025V\370?]\245\367\341v\026\305?]\245\367\341v\026\305?\333\025^\257\373>\336?\307\367~+\342\327\346?\210\310&\253\330\263\243\277\322i\331T\022b\245\277\2010\300+\323h\243?\005[\3419ox\337\277\344\233\037\247\327\226\334?]\245\367\341v\026\305?]\245\367\341v\026\305?\321\300\270\355\347\233\336?\227\235:\340\332\237\326?@\310&\253\330\263\243\277\027k\331T\022b\245\277\2010\300+\323h\243?\210}\364m\177x\337\277\270@\326\326\343N\331?]\245\367\341v\026\305?]\245\367\341v\026\305?hs\005\215\340\307\333?K\362\332(\032a\323?v\312&\253\330\263\243\277Ek\331T\022b\245\277\2010\300+\323h\243??\220\024~}r\337\277\371\217\017!\353\343\365?]\245\367\341v\026\305?]\245\367\341v\026\305?\230\310\366Z\216\240\336?\357E\020\213\273\205\356?<\310&\253\330\263\243\277\371h\331T\022b\245\277\2010\300+\323h\243?5\021\237e\365x\337\277\315\340\326\340\244\303\322?]\245\367\341v\026\305?]\245\367\341v\026\305?!\037\332\314x\343\334?\245 \254\001M\330\320\277\230\311&\253\330\263\243\277Em\331T\022b\245\277\2010\300+\323h\243?\0300yK\372x\337\2773\306\r\037+\376\316?]\245\367\341v\026\305?]\245\367\341v\026\305?Q\'Ly \266\336?c\233\021\333g\005\351?+\310&\253\330\263\243\277\225i\331T\022b\245\277\2010\300+\323h\243?z\007t\301my\337\277\2774\204\327\375m\310?]\245\367\341v\026\305?]\245\367\341v\026\305?\370b0\013\200\330\336?\242E\000{K\001\323?\020\310&\253\330\263\243\277Kk\331T\022b\245\277\2010\300+\323h\243?!\265\346;\327r\337\277\320\205\034\020x\234\362?]\245\367\341v\026\305?]\245\367\341v\026\305?\217\314M\226\006v\333?(\001\243\022\252\205\263\277\266\312&\253\330\263\243\277\234l\331T\022b\245\277\2010\300+\323h\243?4hp\200\021y\337\277\236l\353\004\205\305\266?]\245\367\341v\026\305?]\245\367\341v\026\305?\003\250\n\230\"Z\336?&\333D\256\327\020\317?s\310&\253\330\263\243\277{k\331T\022b\245\277\2010\300+\323h\243?\323\247\252\212\251s\337\277R\262;L\254\370\360?]\245\367\341v\026\305?]\245\367\341v\026\305?\263\334cG1\330\333?\235k!UqI\337\277i\312&\253\330\263\243\277\021n\331T\022b\245\277\2010\300+\323h\243?3\035>Z\214s\337\277\200\254\2153\000(\360?]\245\367\341v\026\305?]\245\367\341v\026\305?\303D\306\327^\353\334?S\331\017R^\377\341?\222\311&\253\330\263\243\277Zj\331T\022b\245\277\2010\300+\323h\243?M\3413\241\217s\337\277\303\201}^\235\255\356?]\245\367\341v\026\305?]\245\367\341v\026\305?\337\024\362\"/\376\332?\025\313\034h]\310\322\277\024\313&\253\330\263\243\277`m\331T\022b\245\277\2010\300+\323h\243?\265\266\345\240.x\337\277=\307o\312\332g\275\277]\245\367\341v\026\305?]\245\367\341v\026\305?\233\337\026Um\247\335?\016\247\310J\330\354\333?\377\310&\253\330\263\243\277\315j\331T\022b\245\277\2010\300+\323h\243?\224\263vP\334s\337\277\213\212\003\351\014h\353?]\245\367\341v\026\305?]\245\367\341v\026\305?\202f)8\316\233\334?\245\362%!g\233\256\277\320\311&\253\330\263\243\277\215l\331T\022b\245\277\2010\300+\323h\243?0Z\355\373\013t\337\277\267\332\2334\372\305\351?]\245\367\341v\026\305?]\245\367\341v\026\305?-\200\217S\231\251\336?t\222;\211\2740\353?5\310&\253\330\263\243\277Wi\331T\022b\245\277\2010\300+\323h\243?E\314\256\375rt\337\2772\323J\026\351!\350?]\245\367\341v\026\305?]\245\367\341v\026\305?\217\003\244v\016\245\336?k.\312;\025_\360?8\310&\253\330\263\243\277\272h\331T\022b\245\277\2010\300+\323h\243?\3003\307\210\240w\337\2777\355n\321\212k\324\277]\245\367\341v\026\305?]\245\367\341v\026\305?q\312YJX\376\335?\364\344\371xQA\356?\273\310&\253\330\263\243\277\000i\331T\022b\245\277\2010\300+\323h\243?#8\037\270\013t\337\277\200\204\372`h\335\344?]\245\367\341v\026\305?]\245\367\341v\026\305?\026\217?j\036\304\335?;=|65T\322?\351\310&\253\330\263\243\277Tk\331T\022b\245\277\2010\300+\323h\243?\034\001l\336\031x\337\277\336\365\366\253\024\367\332\277]\245\367\341v\026\305?]\245\367\341v\026\305?\212\352\244s\027\003\334?\231\330\203iZ\"\321\277G\312&\253\330\263\243\277Im\331T\022b\245\277\2010\300+\323h\243?sY?\331\261w\337\277\203`S\206}9\336\277]\245\367\341v\026\305?]\245\367\341v\026\305?8\200\342\267dJ\335?\262\304B\251\2349\347?H\311&\253\330\263\243\277\307i\331T\022b\245\277\2010\300+\323h\243?\263n\302v\306s\337\277\205\354,rX\356\337?]\245\367\341v\026\305?]\245\367\341v\026\305?\030\335\343UJ\374\335?X\336\257\300\272\333\334?\275\310&\253\330\263\243\277\300j\331T\022b\245\277\2010\300+\323h\243?\320\232\262\341\311s\337\277A\342\350\263\227\247\334?]\245\367\341v\026\305?]\245\367\341v\026\305?\277\207\377\333V\355\336?\351(\234e\342\276\340?\000\310&\253\330\263\243\277~j\331T\022b\245\277\2010\300+\323h\243?S\365\256\350\001t\337\277\367E\350d\005_\331?]\245\367\341v\026\305?]\245\367\341v\026\305?^.[\244})\335?\231/\330_\323\270\303?a\311&\253\330\263\243\277\314k\331T\022b\245\277\2010\300+\323h\243?PPZ+2x\337\277\377y5\353t\247\345\277]\245\367\341v\026\305?]\245\367\341v\026\305?\177\231\303,\277\000\337?\332{\302_\2340\351?\361\307&\253\330\263\243\277\217i\331T\022b\245\277\2010\300+\323h\243?\335\250\350\202\206x\337\277\305\244\231\352^K\347\277]\245\367\341v\026\305?]\245\367\341v\026\305?\"\363\316\026\251J\333?\032-\252\315L\362\352\277\330\312&\253\330\263\243\277Po\331T\022b\245\277\2010\300+\323h\243?\246\266W\250dx\337\277j$$5\237\353\350\277]\245\367\341v\026\305?]\245\367\341v\026\305?-\003\317X\n\333\333?\216\036s\\\361/\330\277g\312&\253\330\263\243\277\255m\331T\022b\245\277\2010\300+\323h\243?\351\242)3*s\337\277\252\317yv\326\243\310?]\245\367\341v\026\305?]\245\367\341v\026\305?\256\336\026\351\263\257\334?\363Gr\030\246h\337?\301\311&\253\330\263\243\277\233j\331T\022b\245\277\2010\300+\323h\243?u\356\336\301\034s\337\277t_\005\200\223\033\302?]\245\367\341v\026\305?]\245\367\341v\026\305?\023\027N\006Q9\333?t\302\323+\026Q\307\277\346\312&\253\330\263\243\277\373l\331T\022b\245\277\2010\300+\323h\243?\032K\017\216\361r\337\277;\'\316\315\0262\267?]\245\367\341v\026\305?]\245\367\341v\026\305?\361az\357r\207\335?]\343bB\347\214\355?\030\311&\253\330\263\243\277\025i\331T\022b\245\277\2010\300+\323h\243?\363\033\232\217\313r\337\277\004B\026mZ6\244?]\245\367\341v\026\305?]\245\367\341v\026\305?5o]\3627\371\336?\203\2179\002\236w\345?\367\307&\253\330\263\243\277\371i\331T\022b\245\277\2010\300+\323h\243?\350\002AR\323r\337\277F\330\220\017\0107\210\277]\245\367\341v\026\305?]\245\367\341v\026\305?\355\324\321\205\222D\336?s\031g\203WJ\271?\204\310&\253\330\263\243\277\375k\331T\022b\245\277\2010\300+\323h\243?\3356\331nO8\320\277py\357\222\202]\361\277]\245\367\341v\026\305?]\245\367\341v\026\305?oX\t$\021\"\333?\001\3667\016\202\302\343\277\370\312&\253\330\263\243\277\205n\331T\022b\245\277\2010\300+\323h\243?\310\313L\357:r\337\277\031\360\357\367\324%\275\277]\245\367\341v\026\305?]\245\367\341v\026\305?\203\025\341\366m\236\333?\226\312\323\276\034\301\346\277\227\312&\253\330\263\243\277\331n\331T\022b\245\277\2010\300+\323h\243?\241\020\'y\3307\320\277\353\267\272\222\303\376\362\277]\245\367\341v\026\305?]\245\367\341v\026\305?\217\240\345\230\213\235\334?2(a\030\372B\341?\317\311&\253\330\263\243\277pj\331T\022b\245\277\2010\300+\323h\243?\354\2648\307\n8\320\277X1\264>\343\316\363\277]\245\367\341v\026\305?]\245\367\341v\026\305?E\036\367\213\200\321\333?\300^\334zt\273\307\277o\312&\253\330\263\243\277\376l\331T\022b\245\277\2010\300+\323h\243?\204l\377G\035r\337\277\301\275\026\336\230\024\321\277]\245\367\341v\026\305?]\245\367\341v\026\305?n\336\262\332\315f\335?\240\200Ak\024Hl?2\311&\253\330\263\243\277Tl\331T\022b\245\277\2010\300+\323h\243?-2\304\\Q8\320\277\245[\356\335\265o\365\277]\245\367\341v\026\305?]\245\367\341v\026\305?\177\300\025\033B\027\333?\365VD\265\364\226\333\277\000\313&\253\330\263\243\277\334m\331T\022b\245\277\2010\300+\323h\243?|\326\225Y\3677\320\277\256x\236\303a>\366\277]\245\367\341v\026\305?]\245\367\341v\026\305?\000\216\017T\322\272\335?P\"mj\024\213\263?\360\310&\253\330\263\243\277\022l\331T\022b\245\277\2010\300+\323h\243?\257GqR\316r\337\277\020\360\214\005W\344\332\277]\245\367\341v\026\305?]\245\367\341v\026\305?\263\326&\225\327\013\334?\241\253:\334\316\236\317\277A\312&\253\330\263\243\2776m\331T\022b\245\277\2010\300+\323h\243?|\326\031r\313r\337\277}\005%8\321&\336\277]\245\367\341v\026\305?]\245\367\341v\026\305?k\332\227\036\230_\335?\323\036lP\375\252\343?7\311&\253\330\263\243\277,j\331T\022b\245\277\2010\300+\323h\243?\243E\362\314\3137\320\277\376\316\037-\254\250\370\277]\245\367\341v\026\305?]\245\367\341v\026\305?\\\337\305\302\017\r\333?\317\255p\177\361;\304?\010\313&\253\330\263\243\277\310k\331T\022b\245\277\2010\300+\323h\243?\347\212\337$\366q\337\277I7\334\233&T\342\277]\245\367\341v\026\305?]\245\367\341v\026\305?\244\360\2302#\366\333?`\372\226\nV]\340\277R\312&\253\330\263\243\277%n\331T\022b\245\277\2010\300+\323h\243?\217\347V\210\3117\320\277\005\227U\205\345>\372\277]\245\367\341v\026\305?]\245\367\341v\026\305?\263\317o$\261\200\324?\364\305\002\202\344\004\000\300\'\320&\253\330\263\243\277is\331T\022b\245\277\2010\300+\323h\243?W\277\212e\236p\337\277\316uQ\310*\217\345\277]\245\367\341v\026\305?]\245\367\341v\026\305?\t\216\317h\311\276\276?\346\364E}\227\034\014\300.\332&\253\330\263\243\277\276x\331T\022b\245\277\2010\300+\323h\243?\276\007W\243\217m\337\277%\'\235\271m\034\347\277]\245\367\341v\026\305?]\245\367\341v\026\305?\256\365\247XS\331\336?b\036\343O\347$\334?\020\310&\253\330\263\243\277\311j\331T\022b\245\277\2010\300+\323h\243?\327\3349eG\213\002@\362\303q\346\230\000\365?]\245\367\341v\026\305?]\245\367\341v\026\305?\2228w\304\234\321\333?\315\331\337\350\337\214\344\277o\312&\253\330\263\243\277\233n\331T\022b\245\277\2010\300+\323h\243?\327\3349eG\213\002@B\273\003)\356/\364?]\245\367\341v\026\305?]\245\367\341v\026\305?\254Q\315\234b{\333?F\222\201\237\224\366\302?\262\312&\253\330\263\243\277\321k\331T\022b\245\277\2010\300+\323h\243?\327\3349eG\213\002@y\250\264\263m_\363?]\245\367\341v\026\305?]\245\367\341v\026\305?\210\355\311M\327\304\333?W`\2635@2\325?x\312&\253\330\263\243\277,k\331T\022b\245\277\2010\300+\323h\243?\327\3349eG\213\002@\263\202m\335\311\216\362?]\245\367\341v\026\305?]\245\367\341v\026\305?q\271\353\236\317$\333?n\330v~\341D\260?\366\312&\253\330\263\243\277\035l\331T\022b\245\277\2010\300+\323h\243?\327\3349eG\213\002@\267\336\273>t\276\361?]\245\367\341v\026\305?]\245\367\341v\026\305?#_\r~C\372\335?\317\005v\320\315A\361?\276\310&\253\330\263\243\277\210h\331T\022b\245\277\2010\300+\323h\243?\327\3349eG\213\002@\236y\010!\276\354\360?]\245\367\341v\026\305?]\245\367\341v\026\305?\241\324gm\324Y\336?\355\324\213\237\177\321\326?t\310&\253\330\263\243\277\024k\331T\022b\245\277\2010\300+\323h\243?\327\3349eG\213\002@\035\271\212\361\331\032\360?]\245\367\341v\026\305?]\245\367\341v\026\305?\274\322\305\350\272\246\334?\304\320\273\316\310\034\320\277\310\311&\253\330\263\243\277:m\331T\022b\245\277\2010\300+\323h\243?\327\3349eG\213\002@TJ\344\257\223\223\356?]\245\367\341v\026\305?]\245\367\341v\026\305?x\026\001\236\333o\335?|\234\006\\\005\220\336?*\311&\253\330\263\243\277\250j\331T\022b\245\277\2010\300+\323h\243?\327\3349eG\213\002@\373\033I\276\260\360\354?]\245\367\341v\026\305?]\245\367\341v\026\305?\211Sp#\2302\334?\363\322\301D\364\336\275\277#\312&\253\330\263\243\277\300l\331T\022b\245\277\2010\300+\323h\243?\327\3349eG\213\002@c\335\317l\003O\353?]\245\367\341v\026\305?]\245\367\341v\026\305?2y\207\301\036\342\336?U\244{\"\273\217\360?\t\310&\253\330\263\243\277\257h\331T\022b\245\277\2010\300+\323h\243?\327\3349eG\213\002@\204jxJ\272\252\351?]\245\367\341v\026\305?]\245\367\341v\026\305??\357\306U]\215\334?d+\377\250\327\267\305\277\334\311&\253\330\263\243\277\360l\331T\022b\245\277\2010\300+\323h\243?G\210P\213Wq\337\277\276\315\013\372\361i\374?]\245\367\341v\026\305?]\245\367\341v\026\305?3\221\252qZ\371\333?+{\251\255\335\361\333?P\312&\253\330\263\243\277\314j\331T\022b\245\277\2010\300+\323h\243?\327\3349eG\213\002@#U\031auh\346?]\245\367\341v\026\305?]\245\367\341v\026\305?\351\255\260\275\254\233\335?\354\376eo\211?\347?\010\311&\253\330\263\243\277\306i\331T\022b\245\277\2010\300+\323h\243?\327\3349eG\213\002@\370\314POm\305\344?]\245\367\341v\026\305?]\245\367\341v\026\305?\000;\255\225b\261\336?\377u\355\345%\027\342?/\310&\253\330\263\243\277Xj\331T\022b\245\277\2010\300+\323h\243?\327\3349eG\213\002@H\210\201fX!\343?]\245\367\341v\026\305?]\245\367\341v\026\305?\321\201\305L\216\025\333?\325\025\257\223c\313\246?\001\313&\253\330\263\243\277/l\331T\022b\245\277\2010\300+\323h\243?\201\205\221\267\335p\337\277\325c\254\311\374%\371?]\245\367\341v\026\305?]\245\367\341v\026\305?\331\002\331rv\017\333?\345P\005$\207\270\316?\006\313&\253\330\263\243\277~k\331T\022b\245\277\2010\300+\323h\243?F(\022\260ap\337\277\357b\211\002\257U\370?]\245\367\341v\026\305?]\245\367\341v\026\305?}]\234\253\363\\\335?YX\337\361E\242\222\2779\311&\253\330\263\243\277gl\331T\022b\245\277\2010\300+\323h\243?\327\3349eG\213\002@9\240]\020\177q\334?]\245\367\341v\026\305?]\245\367\341v\026\305?D\332\215&\007Y\335?\332\272H/\002\n\317?<\311&\253\330\263\243\277|k\331T\022b\245\277\2010\300+\323h\243?\327\3349eG\213\002@F\335\027\215\377+\331?]\245\367\341v\026\305?]\245\367\341v\026\305?\252u\354\244\016\220\334?\013x\251\2150\005\221?\331\311&\253\330\263\243\277Hl\331T\022b\245\277\2010\300+\323h\243?\327\3349eG\213\002@\036\2158\243\n\350\325?]\245\367\341v\026\305?]\245\367\341v\026\305?\345\235\220\214p\344\334?{;\366\337u\377\325?\230\311&\253\330\263\243\277 k\331T\022b\245\277\2010\300+\323h\243?\327\3349eG\213\002@\004\n\253pu\243\322?]\245\367\341v\026\305?]\245\367\341v\026\305?\357\351\205\373,\232\333?Q\257^\334\311\327\300\277\232\312&\253\330\263\243\277\316l\331T\022b\245\277\2010\300+\323h\243?\327\3349eG\213\002@+\344\353\303\315\302\316?]\245\367\341v\026\305?]\245\367\341v\026\305?\224_\335#\007Z\335?\341\r@t\'\331\323?;\311&\253\330\263\243\277?k\331T\022b\245\277\2010\300+\323h\243?a\016\031\031\273p\337\277\\c\302\230\357m\363?]\245\367\341v\026\305?]\245\367\341v\026\305?\352\035\270\202\002\240\333?\304k\314\267\374q\212\277\225\312&\253\330\263\243\277cl\331T\022b\245\277\2010\300+\323h\243?\327\3349eG\213\002@\316\372\204e\017\267\301?]\245\367\341v\026\305?]\245\367\341v\026\305?\021p\222\272\034\214\334?+\212\213\'d\300\246?\335\311&\253\330\263\243\277/l\331T\022b\245\277\2010\300+\323h\243?I\277\315\212\323p\337\277\306\227ak\220\313\361?]\245\367\341v\026\305?]\245\367\341v\026\305?R\031\177y\307\322\333?@^\031x\2274\320\277m\312&\253\330\263\243\277<m\331T\022b\245\277\2010\300+\323h\243?\327\3349eG\213\002@O\321\007\n\000\233\242?]\245\367\341v\026\305?]\245\367\341v\026\305?\250\322\271\214\237\245\333?\315]B\033F\375\310?\221\312&\253\330\263\243\277\246k\331T\022b\245\277\2010\300+\323h\243?\327\3349eG\213\002@\002xs(W\325\215\277]\245\367\341v\026\305?]\245\367\341v\026\305?\346\347\'\365A\326\334?v#\370\210\371\023\343?\243\311&\253\330\263\243\277<j\331T\022b\245\277\2010\300+\323h\243?\327\3349eG\213\002@\021\227\024\230\375\313\260\277]\245\367\341v\026\305?]\245\367\341v\026\305?\240k\335}\243\002\334?\367\3141\253\031\022\267\277H\312&\253\330\263\243\277\250l\331T\022b\245\277\2010\300+\323h\243?\351x\312@\252p\337\277z\335\375H\345\017\355?]\245\367\341v\026\305?]\245\367\341v\026\305?\013\237\272z\303Y\334?Y\336\035~\3672\326?\004\312&\253\330\263\243\277\035k\331T\022b\245\277\2010\300+\323h\243?~\005\023J\335p\337\277<\026k\311\021n\353?]\245\367\341v\026\305?]\245\367\341v\026\305?\374p\334\313\254r\334?\177\246l@\215\242\321?\361\311&\253\330\263\243\277^k\331T\022b\245\277\2010\300+\323h\243?\372\002\210\340\331p\337\277\324\247u\024\'\314\351?]\245\367\341v\026\305?]\245\367\341v\026\305?\352\\\377X\0149\333?\222]\260\241\276\315\274\277\346\312&\253\330\263\243\277\275l\331T\022b\245\277\2010\300+\323h\243?\344\006O\"\265p\337\277\205\306\367\217n+\350?]\245\367\341v\026\305?]\245\367\341v\026\305?\351~\375\313\nX\336?\266\0059\364\027\233\362?u\310&\253\330\263\243\277<h\331T\022b\245\277\2010\300+\323h\243?\322c~\206*q\337\277\274V\333\353\255\207\346?]\245\367\341v\026\305?]\245\367\341v\026\305?\322}\310,\226\271\333?\006\273\301.\343\235\327?\201\312&\253\330\263\243\277\nk\331T\022b\245\277\2010\300+\323h\243?\327\3349eG\213\002@\305\375Xt!\304\327\277]\245\367\341v\026\305?]\245\367\341v\026\305?I}\261\371yr\335?\211\004\214\322\340+\340?(\311&\253\330\263\243\277\216j\331T\022b\245\277\2010\300+\323h\243?\277\213\205\233cq\337\277\244gVP\312B\343?]\245\367\341v\026\305?]\245\367\341v\026\305?EOz\377\226\211\335?s\262\206\230\310\200\321?\026\311&\253\330\263\243\277`k\331T\022b\245\277\2010\300+\323h\243?q\235L\376\202q\337\2778\227Lo\326\237\341?]\245\367\341v\026\305?]\245\367\341v\026\305?8\"\333.\023\177\335?TUe\370p\022\316?\036\311&\253\330\263\243\277\203k\331T\022b\245\277\2010\300+\323h\243?+\0348\216\200q\337\277\352\250^\207\334\371\337?]\245\367\341v\026\305?]\245\367\341v\026\305?\0212\337\036\\\216\335?\321\260\030b\204}\317?\023\311&\253\330\263\243\277xk\331T\022b\245\277\2010\300+\323h\243?\327\3349eG\213\002@\013@\016\263Jk\342\277]\245\367\341v\026\305?]\245\367\341v\026\305?\2348j\315m\214\335?\2072S\016{L\342?\024\311&\253\330\263\243\277Rj\331T\022b\245\277\2010\300+\323h\243?%\212i\314Uq\337\277!y^\3468p\331?]\245\367\341v\026\305?]\245\367\341v\026\305?\353&\242\202\3077\321?\264w\224\266(\363\n\300\271\322&\253\330\263\243\277;x\331T\022b\245\277\2010\300+\323h\243?\327\3349eG\213\002@\274\254\257\240q\244\345\277]\245\367\341v\026\305?]\245\367\341v\026\305?\031\2410&\365\373\300?\353\t\274m5\202\002\300\215\331&\253\330\263\243\277\202t\331T\022b\245\277\2010\300+\323h\243?\327\3349eG\213\002@`\211\037Z|2\347\277]\245\367\341v\026\305?]\245\367\341v\026\305?&n:$~\010\207\277i\314\321\360Y\246\003\300\301\340&\253\330\263\243\277\003u\331T\022b\245\277\2010\300+\323h\243?\327\3349eG\213\002@seP\347\206\267\350\277]\245\367\341v\026\305?]\245\367\341v\026\305?\323h_r\305A\311\277\207\357\213\025\022\373\t\300\022\352&\253\330\263\243\277\315w\331T\022b\245\277\2010\300+\323h\243?\327\3349eG\213\002@\006Gc\333\3610\352\277]\245\367\341v\026\305?]\245\367\341v\026\305?\222\177\263\262\255\311\335?\373p\035#\242\355\336?\344\310&\253\330\263\243\277\242j\331T\022b\245\277\2010\300+\323h\243?E^Njn\211\337\2770\235\273S\367$\302?]\245\367\341v\026\305?]\245\367\341v\026\305?\354\214E\332\222(\340\277\306\020\265\020\237\370\001\300y\371&\253\330\263\243\277Et\331T\022b\245\277\2010\300+\323h\243?\327\3349eG\213\002@\372\272\320I\233\005\355\277]\245\367\341v\026\305?]\245\367\341v\026\305?\3626\234\217\261m\346\277}x\360\272|v\013\300G\003\'\253\330\263\243\277ux\331T\022b\245\277\2010\300+\323h\243?\327\3349eG\213\002@\317\317K\372\210_\356\277]\245\367\341v\026\305?]\245\367\341v\026\305?\237\021X\222\343\365\323?\277J\372\250\315\034\004\300\224\320&\253\330\263\243\2777u\331T\022b\245\277\2010\300+\323h\243?\307\262\0137\353\250\337\277\214UQ\022\331\002\205\277]\245\367\341v\026\305?]\245\367\341v\026\305?\024\263NGD\213\360\277\302P\320\007\267\005\n\300\364\023\'\253\330\263\243\277\322w\331T\022b\245\277\2010\300+\323h\243?\327\3349eG\213\002@\007\223s\r\255z\360\277]\245\367\341v\026\305?]\245\367\341v\026\305?\001\254B\207E\216w?\337\240\'\277\272\023\002\300\347\337&\253\330\263\243\277Qt\331T\022b\245\277\2010\300+\323h\243?\343\022\351a\254\277\337\277\027]-\305dJ\273\277]\245\367\341v\026\305?]\245\367\341v\026\305?\264G)(\224\346\364\277\031K\241\323\316\345\001\300\226!\'\253\330\263\243\277=t\331T\022b\245\277\2010\300+\323h\243?\327\3349eG\213\002@U\016dD\322\262\361\277]\245\367\341v\026\305?]\245\367\341v\026\305?\016\031\302\264\3652\311\277\216\210\322\303\245\332\000\300\014\352&\253\330\263\243\277\307s\331T\022b\245\277\2010\300+\323h\243?\360B\233\2639\330\337\277\242\363\322-\030\223\311\277]\245\367\341v\026\305?]\245\367\341v\026\305?`\266\320}\242{\326\277\354\353vG\3559\005\300\307\361&\253\330\263\243\277\265u\331T\022b\245\277\2010\300+\323h\243?\tY$\001\324\344\337\277\272\252\276x\352S\317\277]\245\367\341v\026\305?]\245\367\341v\026\305?\227\250\365\337\343s\335\277btz\r\271\305\374\277;\367&\253\330\263\243\277\260r\331T\022b\245\277\2010\300+\323h\243?z\024\027{\220\361\337\277\220|$\345\310|\322\277]\245\367\341v\026\305?]\245\367\341v\026\305?-\027\327\240w6\377\277\227s\351\364{\032\010\300\332A\'\253\330\263\243\277\372v\331T\022b\245\277\2010\300+\323h\243?\327\3349eG\213\002@\364{\014\325\314\346\363\277]\245\367\341v\026\305?]\245\367\341v\026\305?\005\371J\202\277\307\346\277|\025\262>3\240\373\277\325\003\'\253\330\263\243\277or\331T\022b\245\277\2010\300+\323h\243?\233`w\242\327\005\340\277\212\241\311\217\306\360\327\277]\245\367\341v\026\305?]\245\367\341v\026\305?\"\276Q\300\360\010\353\277>\3630x\035\000\002\300|\n\'\253\330\263\243\277Ht\331T\022b\245\277\2010\300+\323h\243?\017?\336\316\242\014\340\277Q\336@\344\242\223\332\277]\245\367\341v\026\305?]\245\367\341v\026\305?v\265\276\370\264.\003\300\341\324\'aJ@\004\300:X\'\253\330\263\243\277Gu\331T\022b\245\277\2010\300+\323h\243?\327\3349eG\213\002@C\305\354g\344\\\365\277]\245\367\341v\026\305?]\245\367\341v\026\305?M\025\201o\233x\361\277v$>\013\214\317\003\300\333\026\'\253\330\263\243\277\025u\331T\022b\245\277\2010\300+\323h\243?}C\314\330u\032\340\277\014r5M\314\255\337\277]\245\367\341v\026\305?]\245\367\341v\026\305?ZW\007\3425:\363\277w\310\034I2\010\375\277Z\034\'\253\330\263\243\277\276r\331T\022b\245\277\2010\300+\323h\243? [i\351\216!\340\277\323\370\'^\022\022\341\277]\245\367\341v\026\305?]\245\367\341v\026\305?rB\021\375\246@\006\300\317\027\255L\243\254\375\277qk\'\253\330\263\243\277\343r\331T\022b\245\277\2010\300+\323h\243?\327\3349eG\213\002@\307A\r[\360\253\366\277]\245\367\341v\026\305?]\245\367\341v\026\305?L\254\327\202\322\217\007\300;\026\237\010\345\234\006\300\242s\'\253\330\263\243\277Qv\331T\022b\245\277\2010\300+\323h\243?\327\3349eG\213\002@m\336G\222I\022\367\277]\245\367\341v\026\305?]\245\367\341v\026\305?6?!\000\326\217\010\300\301t\241\010H\316\000\300\344y\'\253\330\263\243\277\302s\331T\022b\245\277\2010\300+\323h\243?\327\3349eG\213\002@\277\324x~\245t\367\277]\245\367\341v\026\305?]\245\367\341v\026\305?\325\21296\247\245\t\300\333\340\332\300\304g\002\300\257\200\'\253\330\263\243\277vt\331T\022b\245\277\2010\300+\323h\243?\327\3349eG\213\002@\315\336\n\370\255\322\367\277]\245\367\341v\026\305?]\245\367\341v\026\305?\371\3073\345\346\365\373\277A\303\243Z\r\227\367\277\2557\'\253\330\263\243\277\213q\331T\022b\245\277\2010\300+\323h\243?\263\371h\354\250F\340\277\211\367\007\276\217\324\346\277]\245\367\341v\026\305?]\245\367\341v\026\305?\316K\216\354\334\207\375\277ci\224\327p\211\371\277\227<\'\253\330\263\243\277\371q\331T\022b\245\277\2010\300+\323h\243?J\265\250\035\202N\340\277l\3779\257\214\347\347\277]\245\367\341v\026\305?]\245\367\341v\026\305?\256\262\034\035D\232\014\3001\230Z\276\013\014\374\277.\223\'\253\330\263\243\277\207r\331T\022b\245\277\2010\300+\323h\243?\327\3349eG\213\002@,\005\307?J\325\370\277]\245\367\341v\026\305?]\245\367\341v\026\305?6\351\225&\341\320\r\300a6\224Y\264\317\004\300\306\232\'\253\330\263\243\277\205u\331T\022b\245\277\2010\300+\323h\243?\327\3349eG\213\002@0<,