node {
  name: "global_step"
  op: "Variable"
  attr {
    key: "_output_shapes"
    value {
      list {
        shape {
        }
      }
    }
  }
  attr {
    key: "container"
    value {
      s: ""
    }
  }
  attr {
    key: "dtype"
    value {
      type: DT_INT64
    }
  }
  attr {
    key: "shape"
    value {
      shape {
      }
    }
  }
  attr {
    key: "shared_name"
    value {
      s: ""
    }
  }
}
node {
  name: "global_step/Initializer/zeros"
  op: "Const"
  attr {
    key: "_class"
    value {
      list {
        s: "loc:@global_step"
      }
    }
  }
  attr {
    key: "_output_shapes"
    value {
      list {
        shape {
        }
      }
    }
  }
  attr {
    key: "dtype"
    value {
      type: DT_INT64
    }
  }
  attr {
    key: "value"
    value {
      tensor {
        dtype: DT_INT64
        tensor_shape {
        }
        int64_val: 0
      }
    }
  }
}
node {
  name: "global_step/Assign"
  op: "Assign"
  input: "global_step"
  input: "global_step/Initializer/zeros"
  attr {
    key: "T"
    value {
      type: DT_INT64
    }
  }
  attr {
    key: "_class"
    value {
      list {
        s: "loc:@global_step"
      }
    }
  }
  attr {
    key: "_output_shapes"
    value {
      list {
        shape {
        }
      }
    }
  }
  attr {
    key: "use_locking"
    value {
      b: true
    }
  }
  attr {
    key: "validate_shape"
    value {
      b: true
    }
  }
}
node {
  name: "global_step/read"
  op: "Identity"
  input: "global_step"
  attr {
    key: "T"
    value {
      type: DT_INT64
    }
  }
  attr {
    key: "_class"
    value {
      list {
        s: "loc:@global_step"
      }
    }
  }
  attr {
    key: "_output_shapes"
    value {
      list {
        shape {
        }
      }
    }
  }
}
node {
  name: "Const"
  op: "Const"
  attr {
    key: "_output_shapes"
    value {
      list {
        shape {
          dim {
            size: 4311
          }
          dim {
            size: 9
          }
        }
      }
    }
  }
  attr {
    key: "dtype"
    value {
      type: DT_DOUBLE
    }
  }
  attr {
    key: "value"
    value {
      tensor {
        dtype: DT_DOUBLE
        tensor_shape {
          dim {
            size: 4311
          }
          dim {
            size: 9
          }
        }
        tensor_content: "\346q\254\020P\315\310?\346q\254\020P\315\310?#-\037\312\363\300\324?+\214\216P\032\247\312\277\n\257v\206\326\300l?y\355+\002l\205w?HY\316Xn6\207?Y\202V\211j\250\350?\375H\357\347\267\352\362?\346q\254\020P\315\310?\346q\254\020P\315\310?\220\212\332\212:\204\330?W:\355i\345\277\360?C\324v\206\326\300l?e\005,\002l\205w?HY\316Xn6\207?Y\202V\211j\250\350?\026\342\255\016N.\361?\346q\254\020P\315\310?\346q\254\020P\315\310?\004\326\252h\031\305\325?8/A\033\"5\315?\027\271v\206\326\300l?\312\365+\002l\205w?HY\316Xn6\207?Y\202V\211j\250\350?=\016n\0335\346\356?\346q\254\020P\315\310?\346q\254\020P\315\310?Uz\013=\230\262\326?C\241\033\255\247l\341?E\302v\206\326\300l?\322\373+\002l\205w?HY\316Xn6\207?Y\202V\211j\250\350?\200\366\305}\'o\353?\346q\254\020P\315\310?\346q\254\020P\315\310?I\344\260\224\274\350\327?\337\000OS\333\220\357?A\316v\206\326\300l??\004,\002l\205w?HY\316Xn6\207?Y\202V\211j\250\350?\t.\263SY\367\347?\346q\254\020P\315\310?\346q\254\020P\315\310?\273e\355\370\242\205\327?4\333\276]\275\306\361?m\312v\206\326\300l?\236\006,\002l\205w?HY\316Xn6\207?Y\202V\211j\250\350?\373\034\r.\301\200\344?\346q\254\020P\315\310?\346q\254\020P\315\310?\212\201\206{|\235\325?\261D\276\255\274J\222?\217\267v\206\326\300l?\310\361+\002l\205w?HY\316Xn6\207?Y\202V\211j\250\350?s\\P$\004\n\341?\346q\254\020P\315\310?\346q\254\020P\315\310?|1#\277\025\335\326?\220\331\343a)\207\341?\351\303v\206\326\300l?\342\373+\002l\205w?HY\316Xn6\207?Y\202V\211j\250\350?\034z\037\211\215%\333?\346q\254\020P\315\310?\346q\254\020P\315\310?d\352\202\261)\234\324?/\201A\213e\222\307?\235\255v\206\326\300l?\363\364+\002l\205w?HY\316Xn6\207?Y\202V\211j\250\350?\212k\242\333E=\324?\346q\254\020P\315\310?\346q\254\020P\315\310?\037\210q\020\261\177\326?\305A\327\3060\035\341?M\300v\206\326\300l?\243\373+\002l\205w?HY\316Xn6\207?Y\202V\211j\250\350?\272\315\315\250\225\240\312?\346q\254\020P\315\310?\346q\254\020P\315\310?Y,\234\232;\322\325?\031\333f\203\007:\333\277\232\271v\206\326\300l?U\351+\002l\205w?HY\316Xn6\207?Y\202V\211j\250\350?DZ\233\007#}\271?\346q\254\020P\315\310?\346q\254\020P\315\310?\251\001\330s\226\227\324?\256n\006_\277\331\313\277p\255v\206\326\300l?L\355+\002l\205w?HY\316Xn6\207?Y\202V\211j\250\350?\351}mI\212l\201\277\346q\254\020P\315\310?\346q\254\020P\315\310?\307_@\226\357\232\325?\207\350Sv\267\240\306?v\267v\206\326\300l?\320\364+\002l\205w?HY\316Xn6\207?Y\202V\211j\250\350?\245i*^\025\334\275\277\346q\254\020P\315\310?\346q\254\020P\315\310?\265\304oQ\031\223\324?\234\345\243j>\023\320?C\255v\206\326\300l?:\366+\002l\205w?HY\316Xn6\207?Y\202V\211j\250\350?x\231\037\214\350\273\314\277\346q\254\020P\315\310?\346q\254\020P\315\310?2\r\335\227N\340\327?>Y\254\n\345\324\360?\356\315v\206\326\300l?~\005,\002l\205w?HY\316Xn6\207?Y\202V\211j\250\350?\"\013V(\262K\325\277\346q\254\020P\315\310?\346q\254\020P\315\310?\300\300\231\327\261l\305?\342\307\260\352\231\344\t\300\262Kv\206\326\300l?\301\263+\002l\205w?HY\316Xn6\207?Y\202V\211j\250\350?\346>\314]\244$\334\277\346q\254\020P\315\310?\346q\254\020P\315\310?\233\247)\216m\023\301\277\337:\316c71\001\300?\215u\206\326\300l?|\310+\002l\205w?HY\316Xn6\207?Y\202V\211j\250\350?\342D6`\306U\341\277\346q\254\020P\315\310?\346q\254\020P\315\310?\260A\241.\366\361\340\277E\213\217\213\r\245\t\300o\222t\206\326\300l?W\264+\002l\205w?HY\316Xn6\207?Y\202V\211j\250\350?\343#\014Y\376k\344\277\346q\254\020P\315\310?\346q\254\020P\315\310?\340V\360\353\203\316\352\277\206#\017\273\226o\003\300N\317s\206\326\300l?#\303+\002l\205w?HY\316Xn6\207?Y\202V\211j\250\350?\213\236\335\247TY\347\277\346q\254\020P\315\310?\346q\254\020P\315\310?\020\256\320\336Y\202\363\277\235\306s\234\265]\007\300\256\335r\206\326\300l?\306\271+\002l\205w?HY\316Xn6\207?Y\202V\211j\250\350?\254\225\275\331-\031\352\277\346q\254\020P\315\310?\346q\254\020P\315\310?U\362\244_-(\371\277P\225\016\345\262\n\n\300.\376q\206\326\300l?e\263+\002l\205w?HY\316Xn6\207?Y\202V\211j\250\350?m\311y5y\256\354\277\346q\254\020P\315\310?\346q\254\020P\315\310?\342z\363k\204\322\375\277I\343\2647R\273\003\300\217Eq\206\326\300l?o\302+\002l\205w?HY\316Xn6\207?Y\202V\211j\250\350?\254\327m\032\305\034\357\277\346q\254\020P\315\310?\346q\254\020P\315\310?\274ZHW\352\232\001\300\272R\226\021O\252\010\300Wpp\206\326\300l?\255\266+\002l\205w?HY\316Xn6\207?Y\202V\211j\250\350?4C\234\347\262\261\360\277\346q\254\020P\315\310?\346q\254\020P\315\310?\225J?\244\277 \004\300y\367\367\224w\253\000\300\254\250o\206\326\300l?\272\311+\002l\205w?HY\316Xn6\207?Y\202V\211j\250\350?U\212\252\\\241\277\361\277\346q\254\020P\315\310?\346q\254\020P\315\310?\243\013\025x\034\320\006\300\274hE\370\357\327\010\300*\324n\206\326\300l?A\266+\002l\205w?HY\316Xn6\207?Y\202V\211j\250\350?\262F>\366o\272\362\277\346q\254\020P\315\310?\346q\254\020P\315\310?\243\367\207\014g\022\t\300\003\n\305\203\243\273\003\300a!n\206\326\300l?n\302+\002l\205w?HY\316Xn6\207?Y\202V\211j\250\350?\226_8\335m\242\363\277\346q\254\020P\315\310?\346q\254\020P\315\310?{L\341\' r\013\300,\224\270g[\202\004\300\177em\206\326\300l?\224\300+\002l\205w?HY\316Xn6\207?Y\202V\211j\250\350? \220yU\364w\364\277\346q\254\020P\315\310?\346q\254\020P\315\310?\242\216v\345\301\\\r\300\023_:\037au\377\277\317\315l\206\326\300l?\370\313+\002l\205w?HY\316Xn6\207?Y\202V\211j\250\350?\373\333\025M5=\365\277\346q\254\020P\315\310?\346q\254\020P\315\310?7N\005\032\320\232\017\300\334S\376\244}\347\365\277T\034l\206\326\300l?Y\327+\002l\205w?HY\316Xn6\207?Y\202V\211j\250\350?8*\215*\241\357\365\277\346q\254\020P\315\310?\346q\254\020P\315\310?\311\351G\327\206\370\020\300\273\210\236Pq|\004\300ack\206\326\300l?\242\300+\002l\205w?HY\316Xn6\207?Y\202V\211j\250\350?)\246%\323}\221\366\277\346q\254\020P\315\310?\346q\254\020P\315\310?H\346[\234\242\003\022\300\210T\204\026l\027\376\2778\276j\206\326\300l?\230\315+\002l\205w?HY\316Xn6\207?Y\202V\211j\250\350?\276\347\301\365X!\367\277\346q\254\020P\315\310?\346q\254\020P\315\310?depY\223\326\022\300@4\020\337}\364\372\277\311;j\206\326\300l?U\321+\002l\205w?HY\316Xn6\207?Y\202V\211j\250\350?\362-hk\"\243\367\277\346q\254\020P\315\310?\346q\254\020P\315\310?/\331D\211\335W\324?\327\261\365\274\324\260\343\277\372\252v\206\326\300l?\267\345+\002l\205w?HY\316Xn6\207?Ef\257\rF^\365\277\336\367\316\301\010\034\363?\346q\254\020P\315\310?\346q\254\020P\315\310?\310\335g\tUN\327?\3614\213\177\345\352\332?I\310v\206\326\300l?v\371+\002l\205w?HY\316Xn6\207?f\263\020KL^\365\277Q\352\275\324\256_\361?\346q\254\020P\315\310?\346q\254\020P\315\310?\277\275\263\002#\277\325?a\234I\367y\337\342?\334\270v\206\326\300l?\257\374+\002l\205w?HY\316Xn6\207?\242\235\242\247/^\365\277\347`],GJ\357?\346q\254\020P\315\310?\346q\254\020P\315\310?Rh\365(\n\240\325?\265\315\201\022!\273\343?\250\267v\206\326\300l?2\375+\002l\205w?HY\316Xn6\207?lQ\224\267\r^\365\277\216\353-\031\212\325\353?\346q\254\020P\315\310?\346q\254\020P\315\310?\216L\314>\033\n\327?\242\201K)\016\207\177\277\246\305v\206\326\300l?L\361+\002l\205w?HY\316Xn6\207?h\215\333\271\017^\365\277z\370n\\\350[\350?\346q\254\020P\315\310?\346q\254\020P\315\310?!\033_f\374F\330?\247\241\325\033\224n\364?\345\321v\206\326\300l?\310\t,\002l\205w?HY\316Xn6\207?\316\310}\033 ^\365\277\313\312\007\312p\344\344?\346q\254\020P\315\310?\346q\254\020P\315\310?\245\003>\033\2774\325?\277\375\366,\034o\262?\203\263v\206\326\300l?\321\362+\002l\205w?HY\316Xn6\207?\354\212\036\t%^\365\277\332\213\225\n\255n\341?\346q\254\020P\315\310?\346q\254\020P\315\310?~\t\251\374\240\214\327?\'\332\316\243I\325\254?\262\312v\206\326\300l?\204\362+\002l\205w?HY\316Xn6\207?\3722\24293^\365\277z{\014\247\304\350\333?\346q\254\020P\315\310?\346q\254\020P\315\310?\324\224\221%i|\325?z\343\274\\\310>\312\277H\266v\206\326\300l?\211\355+\002l\205w?HY\316Xn6\207?a\241\322\032I^\365\277w\331\324\307^\372\324?\346q\254\020P\315\310?\346q\254\020P\315\310?z\006\363\360\310\271\324?W0\n\366\032+\244\277\302\256v\206\326\300l?\261\360+\002l\205w?HY\316Xn6\207?V`7E4^\365\277\337\232c\224R \314?\346q\254\020P\315\310?\346q\254\020P\315\310?\243\036\2547\235~\326?\271v\244\350S\\\351?C\300v\206\326\300l?\214\000,\002l\205w?HY\316Xn6\207?}\036\322\350,^\365\277U\256\217\370t\224\274?\346q\254\020P\315\310?\346q\254\020P\315\310?\023\221t\307\340j\326?\03004L[\233s\277\200\277v\206\326\300l?Z\361+\002l\205w?HY\316Xn6\207?,{\0319B^\365\277\321\305\252u\246rj?\346q\254\020P\315\310?\346q\254\020P\315\310?\304\205\315\031#n\326?o\004x\345\243\247\335?\237\277v\206\326\300l?F\372+\002l\205w?HY\316Xn6\207?y\263\3618K^\365\277\354\367!\236\245\337\272\277\346q\254\020P\315\310?\346q\254\020P\315\310?\230F6\376\352\226\325?\0160\0313\200\330\326?N\267v\206\326\300l??\370+\002l\205w?HY\316Xn6\207?\212\022\273h?^\365\277\374\006*\364\016D\313\277\346q\254\020P\315\310?\346q\254\020P\315\310?\341\203\302\362\033\254\325?\244n\236M>\207\311\277 \270v\206\326\300l?\244\355+\002l\205w?HY\316Xn6\207?Y\202V\211j\250\350?|\217|\232\037\220\324\277\346q\254\020P\315\310?\346q\254\020P\315\310?f\323\3347~d\320?\325\351\327\306\t*\352\277\344\203v\206\326\300l?\334\341+\002l\205w?HY\316Xn6\207?Y\202V\211j\250\350?\222\216U\331\361m\333\277\346q\254\020P\315\310?\346q\254\020P\315\310?\225\200\367cy\276\271\277\204\206\353)U\276\001\300\013\242u\206\326\300l?+\307+\002l\205w?HY\316Xn6\207?Y\202V\211j\250\350?\246[D\000\273\376\340\277\346q\254\020P\315\310?\346q\254\020P\315\310?\242\350n\362\\a\336\277]\013,\327\3649\006\300(\265t\206\326\300l?}\274+\002l\205w?HY\316Xn6\207?Y\202V\211j\250\350?\311\261\220\3507\032\344\277\346q\254\020P\315\310?\346q\254\020P\315\310?\366u\257\3248\036\352\277\376:Lb\217\"\004\300\357\334s\206\326\300l?x\301+\002l\205w?HY\316Xn6\207?Y\202V\211j\250\350?!,\010\324\211\n\347\277\346q\254\020P\315\310?\346q\254\020P\315\310?94\314~<$\363\277Z\275\032\037\315w\r\300:\354r\206\326\300l?<\253+\002l\205w?HY\316Xn6\207?Y\202V\211j\250\350?\257IfZ\354\317\351\277\346q\254\020P\315\310?\346q\254\020P\315\310?\224\223\347\360\275]\370\277\035\035\367\235zu\013\300y\035r\206\326\300l?\006\260+\002l\205w?HY\316Xn6\207?Y\202V\211j\250\350?\225r\205C\363k\354\277\346q\254\020P\315\310?\346q\254\020P\315\310?~\342\232\024s\004\375\2773\310\316\323}\230\001\300jeq\206\326\300l?\205\307+\002l\205w?HY\316Xn6\207?Y\202V\211j\250\350??\265\356\206\210\337\356\277\346q\254\020P\315\310?\346q\254\020P\315\310?\314\205\'\233g\"\001\300\304\216\035<\327\231\000\300\231\225p\206\326\300l?\344\311+\002l\205w?HY\316Xn6\207?Y\202V\211j\250\350?j\004+\227\363\224\360\277\346q\254\020P\315\310?\346q\254\020P\315\310?\273\r\n_9\360\003\300\001\003\307\2042\344\002\300\255\267o\206\326\300l?o\304+\002l\205w?HY\316Xn6\207?Y\202V\211j\250\350?m\374\\\246\332\244\361\277\346q\254\020P\315\310?\346q\254\020P\315\310?z\320Y\177-\211\006\300\327p\271\314\2321\007\300\031\352n\206\326\300l?.\272+\002l\205w?HY\316Xn6\207?Y\202V\211j\250\350?_\256\247\342u\241\362\277\346q\254\020P\315\310?\346q\254\020P\315\310?\022H\204\234=\266\010\3003Z\256\364\303\t\377\277\337=n\206\326\300l?x\314+\002l\205w?HY\316Xn6\207?Y\202V\211j\250\350?\312\207\336\314T\213\363\277\346q\254\020P\315\310?\346q\254\020P\315\310?\r\357)\242\013S\013\300JS(\355\346=\004\300\032om\206\326\300l?7\301+\002l\205w?HY\316Xn6\207?Y\202V\211j\250\350?L\252\246\364\310a\364\277\346q\254\020P\315\310?\346q\254\020P\315\310?\001PYB\3713\r\300l\3748\334\233<\001\300k\332l\206\326\300l?`\310+\002l\205w?HY\316Xn6\207?Y\202V\211j\250\350?\342\010\003^\247(\365\277\346q\254\020P\315\310?\346q\254\020P\315\310?\315e-\215\211\215\017\300\365\216\365\227\253\241\001\300o l\206\326\300l?o\307+\002l\205w?HY\316Xn6\207?Y\202V\211j\250\350?\277\r\323\215\001\335\365\277\346q\254\020P\315\310?\346q\254\020P\315\310?\021\336F\373\215\276\020\300R\267\221\016` \374\2779\207k\206\326\300l?\360\317+\002l\205w?HY\316Xn6\207?Y\202V\211j\250\350?&x\244\361\002\201\366\277\346q\254\020P\315\310?\346q\254\020P\315\310?I\213\357\034\335\325\021\300\013N\2221\274)\365\277\205\332j\206\326\300l?;\330+\002l\205w?HY\316Xn6\207?Y\202V\211j\250\350?\251g\021\320\271\022\367\277\346q\254\020P\315\310?\346q\254\020P\315\310?1}]\344\226\304\022\300\r\370\264\005\345M\370\277\350Fj\206\326\300l?}\324+\002l\205w?HY\316Xn6\207?Y\202V\211j\250\350?Uf\360\354s\225\367\277\346q\254\020P\315\310?\346q\254\020P\315\310?\347\215\032\226\tz\324?\310!\312\177k\001\352\277L\254v\206\326\300l?\364\341+\002l\205w?HY\316Xn6\207?Y\202V\211j\250\350?\261\237-\213]b\362?\346q\254\020P\315\310?\346q\254\020P\315\310?p\251\022\256\n\327\325?\337{\030\317\025\177\334\277\310\271v\206\326\300l?\365\350+\002l\205w?HY\316Xn6\207?Y\202V\211j\250\350?\327\363\370\321\347\245\360?\346q\254\020P\315\310?\346q\254\020P\315\310?\262\320`\372\260\231\327?\024\3035\275\016H\305?2\313v\206\326\300l?\235\364+\002l\205w?HY\316Xn6\207?Y\202V\211j\250\350?\004_\324\324\254\321\355?\346q\254\020P\315\310?\346q\254\020P\315\310?\306<6b\344c\324?\036\231c\371\260\200\256?q\253v\206\326\300l?\224\362+\002l\205w?HY\316Xn6\207?Y\202V\211j\250\350?B\t\346\003]]\352?\346q\254\020P\315\310?\346q\254\020P\315\310?\210\031\216\261\327s\327?\212\252V.\342\352u?\275\311v\206\326\300l?\213\361+\002l\205w?HY\316Xn6\207?Y\202V\211j\250\350?(\372\361u\376\342\346?\346q\254\020P\315\310?\346q\254\020P\315\310?\243\250\264\372\3416\326?\277I{0\304\300\277?}\275v\206\326\300l?\316\363+\002l\205w?HY\316Xn6\207?Y\202V\211j\250\350?\200\362\227\037tk\343?\346q\254\020P\315\310?\346q\254\020P\315\310?\347\355p\375\310;\325?\357\223smH)\333?\310\263v\206\326\300l?\210\371+\002l\205w?HY\316Xn6\207?Y\202V\211j\250\350?]\231\267\314\307\355\337?\346q\254\020P\315\310?\346q\254\020P\315\310?\320J|\257\244(\330?A\235\000\210\314\202\354?\271\320v\206\326\300l?m\002,\002l\205w?HY\316Xn6\207?Y\202V\211j\250\350?\236\000\204\313\301\374\330?\346q\254\020P\315\310?\346q\254\020P\315\310?<@/\200\225\035\330?\312\240\304@\014P\346?L\320v\206\326\300l?\274\376+\002l\205w?HY\316Xn6\207?Y\202V\211j\250\350?\266\254}\276\240\n\322?\346q\254\020P\315\310?\346q\254\020P\315\310?\245\017\367\221,Q\330?\r\375\304K\365\272\352?K\322v\206\326\300l?]\001,\002l\205w?HY\316Xn6\207?Y\202V\211j\250\350?\332h\233\017\2321\306?\346q\254\020P\315\310?\346q\254\020P\315\310?\374!V#*|\325?\n\231&\202\360\260\334\277F\266v\206\326\300l?\346\350+\002l\205w?HY\316Xn6\207?Y\202V\211j\250\350?L\256/7\337\243\260?\346q\254\020P\315\310?\346q\254\020P\315\310?pub\350B\021\327?A\361\373\034S\006\354?\355\305v\206\326\300l?\"\002,\002l\205w?HY\316Xn6\207?Y\202V\211j\250\350?\004\313\013\335\353\033\246\277\346q\254\020P\315\310?\346q\254\020P\315\310?\277m\213\020kT\324?\010\313(\325\r7\352\277\330\252v\206\326\300l?\324\341+\002l\205w?HY\316Xn6\207?Y\202V\211j\250\350?\253,\246\336Nb\303\277\346q\254\020P\315\310?\346q\254\020P\315\310?\004\325\261\201\336D\325?\370.u\200\357\'\336\277\"\264v\206\326\300l?v\350+\002l\205w?HY\316Xn6\207?Y\202V\211j\250\350?\021\201\255P\302\237\320\277\346q\254\020P\315\310?\346q\254\020P\315\310?\237\237X\203\271\311\326?\310\351\014(\366\002\334?*\303v\206\326\300l?\311\371+\002l\205w?HY\316Xn6\207?Y\202V\211j\250\350?=\257\274A\211\215\327\277\346q\254\020P\315\310?\346q\254\020P\315\310?\210\331\272\331\030\033\261?b2S\2767\010\t\300\006\014v\206\326\300l?\316\265+\002l\205w?HY\316Xn6\207?Y\202V\211j\250\350?\376c\252\276\334L\336\277\346q\254\020P\315\310?\346q\254\020P\315\310?\376\217\247\224\304\225\321\277\311\260\306\207\003:\004\300\2763u\206\326\300l?@\301+\002l\205w?HY\316Xn6\207?Y\202V\211j\250\350?(\354)\251\302Y\342\277\346q\254\020P\315\310?\346q\254\020P\315\310?\265\322*\n9\033\343\277*92,d\252\377\277\253gt\206\326\300l?\271\313+\002l\205w?HY\316Xn6\207?Y\202V\211j\250\350?R\302\314\003Ic\345\277\346q\254\020P\315\310?\346q\254\020P\315\310?Y\277\254\347\036G\357\277\302T}q\234\201\003\300\326vs\206\326\300l?\367\302+\002l\205w?HY\316Xn6\207?Y\202V\211j\250\350?\203\324\2762b?\350\277\346q\254\020P\315\310?\346q\254\020P\315\310?|^\314F\334\370\364\277\257\361.\342\317\214\t\300\312\243r\206\326\300l?\222\264+\002l\205w?HY\316Xn6\207?Y\202V\211j\250\350?\270b\213&\330\364\352\277\346q\254\020P\315\310?\346q\254\020P\315\310?\030\0045\001s\327\372\277\204i=\237Ta\r\300\203\273q\206\326\300l?r\253+\002l\205w?HY\316Xn6\207?Y\202V\211j\250\350?\257\352i\036\212~\355\277\346q\254\020P\315\310?\346q\254\020P\315\310?[l\00284\331\377\277\200\247\243\323GA\004\300a\365p\206\326\300l?0\301+\002l\205w?HY\316Xn6\207?Y\202V\211j\250\350?\363\033\235#^\335\357\277\346q\254\020P\315\310?\346q\254\020P\315\310?\326`\337k\244V\002\300\333L\007\240\262\223\007\300N6p\206\326\300l?E\271+\002l\205w?HY\316Xn6\207?Y\202V\211j\250\350?8l\231\272\013\014\361\277\346q\254\020P\315\310?\346q\254\020P\315\310?Z\217)\324\037\312\004\300</\022\304}\277\373\277Oto\206\326\300l?c\320+\002l\205w?HY\316Xn6\207?Y\202V\211j\250\350?\030\356\304:0\024\362\277\346q\254\020P\315\310?\346q\254\020P\315\310?\3241\034=\010\231\007\300\326\376/\256\026\257\007\300\r\226n\206\326\300l?\004\271+\002l\205w?HY\316Xn6\207?Y\202V\211j\250\350?\036\260\224T\233\010\363\277\346q\254\020P\315\310?\346q\254\020P\315\310?\345\215aK<\003\n\300\351l|[\322\300\010\300\354\326m\206\326\300l?x\266+\002l\205w?HY\316Xn6\207?Y\202V\211j\250\350?6\207,\263Y\352\363\277\346q\254\020P\315\310?\346q\254\020P\315\310?p\375`\224\266H\014\300$$\023\324\356\370\005\300\'#m\206\326\300l?\030\275+\002l\205w?HY\316Xn6\207?Y\202V\211j\250\350?\030\357d[\235\271\364\277\346q\254\020P\315\310?\346q\254\020P\315\310?\214\307\332\201# \016\300\301(\033\212=\033\376\277g\221l\206\326\300l?\223\315+\002l\205w?HY\316Xn6\207?Y\202V\211j\250\350?\251\355\177\022\260x\365\277\346q\254\020P\315\310?\346q\254\020P\315\310?\314R\250\0001 \020\300\025_i\357\301\322\366\277%\351k\206\326\300l?A\326+\002l\205w?HY\316Xn6\207?Y\202V\211j\250\350?%j\260\375\005&\366\277\346q\254\020P\315\310?\346q\254\020P\315\310?B\003k\236\271L\021\300}\317a\370Y\240\000\300Q/k\206\326\300l?\324\311+\002l\205w?HY\316Xn6\207?Y\202V\211j\250\350?\313&\305\206\300\301\366\277\346q\254\020P\315\310?\346q\254\020P\315\310?Wc-\372\323-\022\300Y\326\032\314\343\324\373\277!\244j\206\326\300l?J\320+\002l\205w?HY\316Xn6\207?Y\202V\211j\250\350?\210\365i\021sN\367\277\346q\254\020P\315\310?\346q\254\020P\315\310?\'d\341\350L\206\327?\037G\247\r\342\357\315?s\312v\206\326\300l?\347\365+\002l\205w?HY\316Xn6\207?\373\317\014T\355\246\364\277\355\353\313g\3638\362?\346q\254\020P\315\310?\346q\254\020P\315\310?\250\224\207kd\370\326?\323\035~\004\362\312\341?\367\304v\206\326\300l?\n\374+\002l\205w?HY\316Xn6\207?8/~\261\357\246\364\277\2234,Z*}\360?\346q\254\020P\315\310?\346q\254\020P\315\310?5\335 qg\026\330?\204\234\350^\242\335\360?\005\320v\206\326\300l?\211\005,\002l\205w?HY\316Xn6\207?\177\307\366F\366\246\364\277\352\234\325\355a\202\355?\346q\254\020P\315\310?\346q\254\020P\315\310?[\225\336\221m]\327?C\254\350\322\346\213\360?\337\310v\206\326\300l?\'\005,\002l\205w?HY\316Xn6\207?\214N\016\227\350\246\364\277\350V\003\357\306\013\352?\346q\254\020P\315\310?\346q\254\020P\315\310?h\350\342\000\003\211\327?B{\224\014\221\201\343?\216\312v\206\326\300l?\017\375+\002l\205w?HY\316Xn6\207?$*xU\362\246\364\277\271\342\203[`\223\346?\346q\254\020P\315\310?\346q\254\020P\315\310?\032\241^z\013F\326?\261If\201g\032\336?\023\276v\206\326\300l?h\372+\002l\205w?HY\316Xn6\207?\377|\304X\370\246\364\277j\036\344g\361\034\343?\346q\254\020P\315\310?\346q\254\020P\315\310?so\233\272\341\366\327?`\251\366\343iN\344?\315\316v\206\326\300l?\211\375+\002l\205w?HY\316Xn6\207?Y\202V\211j\250\350?9D\203m\274G\337?\346q\254\020P\315\310?\346q\254\020P\315\310?\363\372\026\314\231\276\326? .\016\345\376\322\346?\274\302v\206\326\300l?\t\377+\002l\205w?HY\316Xn6\207?Y\202V\211j\250\350?\323\005`y\351Z\330?\346q\254\020P\315\310?\346q\254\020P\315\310?\023\327>\206\217\007\327?\'\266\230@@\036\337?\216\305v\206\326\300l?\266\372+\002l\205w?HY\316Xn6\207?Y\202V\211j\250\350?HR\360g|k\321?\346q\254\020P\315\310?\346q\254\020P\315\310?\370ZT\227\312}\324?\030\"\250KcV\263\277q\254v\206\326\300l?\001\360+\002l\205w?HY\316Xn6\207?Y\202V\211j\250\350?\'|l\247\366\003\305?\346q\254\020P\315\310?\346q\254\020P\315\310?\331l\276o\246M\325?B\346B\336\207K\300?z\264v\206\326\300l?\337\363+\002l\205w?HY\316Xn6\207?Y\202V\211j\250\350?I\273\370\207B\267\254?\346q\254\020P\315\310?\346q\254\020P\315\310?u6\032\331R\277\327?\035A7\373q\372\341?\247\314v\206\326\300l?\'\374+\002l\205w?HY\316Xn6\207?Y\202V\211j\250\350?I\254\200C\341\322\252\277\346q\254\020P\315\310?\346q\254\020P\315\310?\017B7p\2749\327?\000\201\240$<\036\330?~\307v\206\326\300l?\240\370+\002l\205w?HY\316Xn6\207?Y\202V\211j\250\350?#\030d\033x\225\304\277\346q\254\020P\315\310?\346q\254\020P\315\310?\202\252\232\232p\240\324?\362|\264\232\314\343\322\277\307\255v\206\326\300l?\321\353+\002l\205w?HY\316Xn6\207?Y\202V\211j\250\350?.\273k9\2345\321\277\346q\254\020P\315\310?\346q\254\020P\315\310?\220\354\226d\345t\324?\030\205\346u\267\311\260\277\031\254v\206\326\300l?1\360+\002l\205w?HY\316Xn6\207?Y\202V\211j\250\350?\274\024Y\036\357\035\330\277\346q\254\020P\315\310?\346q\254\020P\315\310?\263\035\017\364r|\261?s\242\343\\\363\314\001\300\367\014v\206\326\300l?\010\307+\002l\205w?HY\316Xn6\207?Y\202V\211j\250\350?n,\302\321=\327\336\277\346q\254\020P\315\310?\346q\254\020P\315\310?\336\261\233?z\221\323\277\030V+)\254\350\003\300\037 u\206\326\300l?\002\302+\002l\205w?HY\316Xn6\207?Y\202V\211j\250\350?p\354\352\033\373\232\342\277\346q\254\020P\315\310?\346q\254\020P\315\310?\204oz&0{\344\277\253z*^d/\007\300wLt\206\326\300l?4\272+\002l\205w?HY\316Xn6\207?Y\202V\211j\250\350?\027\323\222\334m\242\345\277\346q\254\020P\315\310?\346q\254\020P\315\310?fD\222\347\2053\360\277\032#\000U\177\310\005\300\226`s\206\326\300l?\213\275+\002l\205w?HY\316Xn6\207?Y\202V\211j\250\350?\3571\237g.{\350\277\346q\254\020P\315\310?\346q\254\020P\315\310?\264\007\332\014\307\250\365\277/\325\371$\267\215\003\300\230\210r\206\326\300l?\333\302+\002l\205w?HY\316Xn6\207?Y\202V\211j\250\350?V\224\214\325\264(\353\277\346q\254\020P\315\310?\346q\254\020P\315\310?\"\377\334\r\247\217\372\277\307F\247X\324\346\002\300\235\306q\206\326\300l?i\304+\002l\205w?HY\316Xn6\207?Y\202V\211j\250\350?\213\230\371L\355\257\355\277\346q\254\020P\315\310?\346q\254\020P\315\310?>\333\206\345\373/\000\300&\232\206\350\356\320\005\300\214\340p\206\326\300l?w\275+\002l\205w?HY\316Xn6\207?Y\202V\211j\250\350?\2160qq\256\005\360\277\346q\254\020P\315\310?\346q\254\020P\315\310?\334\261\343\242\366\231\002\300\375\027\327o\0073\004\300~!p\206\326\300l?Q\301+\002l\205w?HY\316Xn6\207?Y\202V\211j\250\350?\013NmBD \361\277\346q\254\020P\315\310?\346q\254\020P\315\310?\216M_\375,8\005\300Xx\327%\363\027\t\300IRo\206\326\300l?\250\265+\002l\205w?HY\316Xn6\207?Y\202V\211j\250\350?~a8w\213\'\362\277\346q\254\020P\315\310?\346q\254\020P\315\310?t\262\362\266\010\243\007\300\037t\345\356K\010\007\300\365\222n\206\326\300l?\221\272+\002l\205w?HY\316Xn6\207?Y\202V\211j\250\350?p\331\243\000}\033\363\277\346q\254\020P\315\310?\346q\254\020P\315\310?\200\237\232\331J\031\n\300\3109\357@\355\352\007\300\032\320m\206\326\300l?u\270+\002l\205w?HY\316Xn6\207?Y\202V\211j\250\350?e\264C\212Y\374\363\277\346q\254\020P\315\310?\346q\254\020P\315\310?\306r\024\340o1\014\300|y:\214\240)\004\300Y*m\206\326\300l?h\301+\002l\205w?HY\316Xn6\207?Y\202V\211j\250\350?Af&\t\333\313\364\277\346q\254\020P\315\310?\346q\254\020P\315\310?\233\364\265\306\220\214\016\300\204\205\315\322=\373\000\300\342ol\206\326\300l?\374\310+\002l\205w?HY\316Xn6\207?Y\202V\211j\250\350?+\375j+\021\210\365\277\346q\254\020P\315\310?\346q\254\020P\315\310?\324E\247\n\306=\020\30058CE@\010\366\277\332\326k\206\326\300l?2\327+\002l\205w?HY\316Xn6\207?Y\202V\211j\250\350?\317\327\355S~3\366\277\346q\254\020P\315\310?\346q\254\020P\315\310?\250\036\rx\245f\021\300SJ}\214~>\002\300J\037k\206\326\300l?\372\305+\002l\205w?HY\316Xn6\207?Y\202V\211j\250\350?J]\370\315\363\315\366\277\346q\254\020P\315\310?\346q\254\020P\315\310?c\035,`\372^\022\300\020\"\311\036u=\001\300\275\205j\206\326\300l?^\310+\002l\205w?HY\316Xn6\207?Y\202V\211j\250\350?Y\232\031\376bX\367\277\346q\254\020P\315\310?\346q\254\020P\315\310?\244\332\230oky\327?\352U\310\315\220\346\340?\364\311v\206\326\300l?\202\373+\002l\205w?HY\316Xn6\207?Y\202V\211j\250\350?>\0350Q\037\362\361?\346q\254\020P\315\310?\346q\254\020P\315\310?\360\340\014m\016i\330?\347X,\016\t\311\321?7\323v\206\326\300l?\275\366+\002l\205w?HY\316Xn6\207?Y\202V\211j\250\350?\002w\246\271v4\360?\346q\254\020P\315\310?\346q\254\020P\315\310?\021Z\376@N\377\326?\002\206\373\207y\316\304?<\305v\206\326\300l?\212\364+\002l\205w?HY\316Xn6\207?Y\202V\211j\250\350?\335\343\321\306\361\357\354?\346q\254\020P\315\310?\346q\254\020P\315\310?\013\004\225\030\213.\325?\004:\314,\261\373\311?F\263v\206\326\300l?P\365+\002l\205w?HY\316Xn6\207?Y\202V\211j\250\350?\276JE\300\236z\351?\346q\254\020P\315\310?\346q\254\020P\315\310?\031E7\202\026b\324?31^\033&\313\322?_\253v\206\326\300l?\n\367+\002l\205w?HY\316Xn6\207?\273\020\371 \212q\365\277\\lNJ\263\346\000@\346q\254\020P\315\310?\346q\254\020P\315\310?\"*r\257O\004\326?Z=e\320\031Y\322?\211\273v\206\326\300l?\350\366+\002l\205w?HY\316Xn6\207?Y\202V\211j\250\350?O\266w\200\002\004\346?\346q\254\020P\315\310?\346q\254\020P\315\310?\376\267\036\2234W\327?\343XN?\362j\360?\241\310v\206\326\300l?\000\005,\002l\205w?HY\316Xn6\207?]=\033@\224q\365\277#p\277\372\003\t\000@\346q\254\020P\315\310?\346q\254\020P\315\310?\3018^1v~\324?aR\024\207\030\237\322?x\254v\206\326\300l?\375\366+\002l\205w?HY\316Xn6\207?Y\202V\211j\250\350?\302\214\371\341_\220\342?\346q\254\020P\315\310?\346q\254\020P\315\310?\021\0351\207oR\325?q\023R]\t\014\314?\251\264v\206\326\300l?\237\365+\002l\205w?HY\316Xn6\207?\344\274>\206\230q\365\2770\270\33070W\376?\346q\254\020P\315\310?\346q\254\020P\315\310?\002\373U\021\342h\326?\360\021\267\2723\207\335?l\277v\206\326\300l?<\372+\002l\205w?HY\316Xn6\207?Y\202V\211j\250\350?\262\203\312\360_3\336?\346q\254\020P\315\310?\346q\254\020P\315\310?QvM)\255*\326?\257\363\234cR\337\265\277\004\275v\206\326\300l?\321\357+\002l\205w?HY\316Xn6\207?\270\212\311\016\237q\365\277\213_2`\000\233\374?\346q\254\020P\315\310?\346q\254\020P\315\310?E\344QV\362z\327?\330\013\262E\024D\343?\003\312v\206\326\300l?\353\374+\002l\205w?HY\316Xn6\207?Y\202V\211j\250\350?\273dMz\363B\327?\346q\254\020P\315\310?\346q\254\020P\315\310?m\007\327\345\355\374\324?\336\336\376S\243\347\305?[\261v\206\326\300l?\264\364+\002l\205w?HY\316Xn6\207?I\3550X\205q\365\277\177\240\313\245g\340\372?\346q\254\020P\315\310?\346q\254\020P\315\310?NBB\233\267\255\327?Y\006\376\230+\337\341?\371\313v\206\326\300l?\026\374+\002l\205w?HY\316Xn6\207?Y\202V\211j\250\350?!H}O\215Q\320?\346q\254\020P\315\310?\346q\254\020P\315\310?A\002q\276\030\307\326?\265\020\375L\251\371\355?\020\303v\206\326\300l?L\003,\002l\205w?HY\316Xn6\207?mO\237\225bq\365\277\030\357\220(p%\371?\346q\254\020P\315\310?\346q\254\020P\315\310?\007\257q\201\236\244\326?\027x&9\241\211\317\277\273\301v\206\326\300l?\277\354+\002l\205w?HY\316Xn6\207?Y\202V\211j\250\350?-\013@\226,\275\302?\346q\254\020P\315\310?\346q\254\020P\315\310?\313\365\002\351\201I\324?=\320\002X\246\001\320\277l\252v\206\326\300l?\255\354+\002l\205w?HY\316Xn6\207?\344\177\033\344Sq\365\277!\377\2748\311j\367?\346q\254\020P\315\310?\346q\254\020P\315\310?Qk]\306 \303\327?-\354\330\326\2261\350?\314\314v\206\326\300l?\332\377+\002l\205w?HY\316Xn6\207?Y\202V\211j\250\350?\013o\340\356\374s\243?\346q\254\020P\315\310?\346q\254\020P\315\310?\205k\367)\340e\325?31\r\337\207\227\321?i\265v\206\326\300l?\257\366+\002l\205w?HY\316Xn6\207?qQM\304Aq\365\277\017Q\312\263\376\257\365?\346q\254\020P\315\310?\346q\254\020P\315\310?V\31683p\306\325?n:\267\300^\033\323?%\271v\206\326\300l?\"\367+\002l\205w?HY\316Xn6\207?Y\202V\211j\250\350?\r\2753\260\005\364\261\277\346q\254\020P\315\310?\346q\254\020P\315\310?J\312z<\216n\326?\313\200z\257G\224\324\277\244\277v\206\326\300l?Q\353+\002l\205w?HY\316Xn6\207?\241\253(\314]q\365\277\331\247E\311*\363\363?\346q\254\020P\315\310?\346q\254\020P\315\310?\235\263/k\207\314\325?\022\260h-\326\270\334?`\271v\206\326\300l?\377\371+\002l\205w?HY\316Xn6\207?Y\202V\211j\250\350?{\244\275\361\264\316\306\277\346q\254\020P\315\310?\346q\254\020P\315\310?]>\313;\362t\325?l\303v\262\267\370\314\277\376\265v\206\326\300l? \355+\002l\205w?HY\316Xn6\207?z\351\177\354gq\365\277h>\302\364s7\362?\346q\254\020P\315\310?\346q\254\020P\315\310?^-\017R\313@\327?\334\375-P\312t\350?\303\307v\206\326\300l?\003\000,\002l\205w?HY\316Xn6\207?Y\202V\211j\250\350?\210\251\347\004\327T\322\277\346q\254\020P\315\310?\346q\254\020P\315\310?\272\317^Z[u\325?\307\371W\230u\021\310\277\002\266v\206\326\300l?\334\355+\002l\205w?HY\316Xn6\207?\336\233\"0Vq\365\277K\314\330D\320{\360?\346q\254\020P\315\310?\346q\254\020P\315\310?\007\\9\212`\023\330?<\262\320\'\352\267\323?\347\317v\206\326\300l?P\367+\002l\205w?HY\316Xn6\207?Y\202V\211j\250\350?\017\226\031.fH\331\277\346q\254\020P\315\310?\346q\254\020P\315\310?\257\227\250\006\352\321\326?.\244\333\230\330?\353?z\303v\206\326\300l?\254\001,\002l\205w?HY\316Xn6\207?y_\034\312\234q\365\277\362\024\353\300g\201\355?\346q\254\020P\315\310?\346q\254\020P\315\310?\345\272fh\304~\201\277\016\251\360\360}\360\002\300N\334u\206\326\300l?Q\304+\002l\205w?HY\316Xn6\207?Y\202V\211j\250\350?\350\311r\314\273\357\337\277\346q\254\020P\315\310?\346q\254\020P\315\310?\331%\001\026Yx\324?\036\373\030\356A\266\306\277;\254v\206\326\300l?\020\356+\002l\205w?HY\316Xn6\207?\263\322\333\250\030s\365\277\265Zc\265\033\014\352?\346q\254\020P\315\310?\346q\254\020P\315\310?\363\200\345/\370\377\324\2775]\"\251\333c\000\300\365\021u\206\326\300l?d\312+\002l\205w?HY\316Xn6\207?Y\202V\211j\250\350?\263\274\222a\344\"\343\277\346q\254\020P\315\310?\346q\254\020P\315\310?\242H\002B\377\024\326?\305\377BG\013\007\321\277-\274v\206\326\300l?_\354+\002l\205w?HY\316Xn6\207?p|\000\203\330u\365\277\375\314\227xl\223\346?\346q\254\020P\315\310?\346q\254\020P\315\310?]\306\322;\327\335\345\277\364*\267\003\210\234\375\277\0161t\206\326\300l?+\316+\002l\205w?HY\316Xn6\207?Y\202V\211j\250\350?\247\356\2322K!\346\277\346q\254\020P\315\310?\346q\254\020P\315\310?\215\210 \253\214\312\326?>\301\206\253,\257\351?2\303v\206\326\300l?\276\000,\002l\205w?HY\316Xn6\207?g+Mg\250y\365\277t#S\302)\035\343?\346q\254\020P\315\310?\346q\254\020P\315\310?\361\252\\fK\375\360\277\261f\023=\331\351\010\300dAs\206\326\300l?\026\266+\002l\205w?HY\316Xn6\207?Y\202V\211j\250\350?wO\006\333O\365\350\277\346q\254\020P\315\310?\346q\254\020P\315\310?b\027\355oM\023\326?\327\034Sy\275+\326?\035\274v\206\326\300l?\013\370+\002l\205w?HY\316Xn6\207?\234\265k\320\264~\365\277|%\232\377jM\337?\346q\254\020P\315\310?\346q\254\020P\315\310?;\000QF\267Q\366\2776s\333\357%\242\007\300{nr\206\326\300l?\"\271+\002l\205w?HY\316Xn6\207?Y\202V\211j\250\350?mE\321\316~\237\353\277\346q\254\020P\315\310?\346q\254\020P\315\310?\016h\214\345\177\236\327?\r\004Z%\273\302\340?b\313v\206\326\300l?m\373+\002l\205w?HY\316Xn6\207?\374W\200\367\006\205\365\277y\3123G\345[\330?\346q\254\020P\315\310?\346q\254\020P\315\310?\356\252+\212k~\373\277iC\336\020W\200\000\300\264\241q\206\326\300l? \312+\002l\205w?HY\316Xn6\207?Y\202V\211j\250\350?\266mC\376m\036\356\277\346q\254\020P\315\310?\346q\254\020P\315\310?#UwvB<\325?\223\351a\227\213v\272\277\315\263v\206\326\300l?y\357+\002l\205w?HY\316Xn6\207?\373\235\335jX\214\365\277\320\035z\3009o\321?\346q\254\020P\315\310?\346q\254\020P\315\310?u\232-#\014\226\000\300l@p\264\206?\010\300\376\300p\206\326\300l?\253\267+\002l\205w?HY\316Xn6\207?Y\202V\211j\250\350?Ol\006\301\\:\360\277\346q\254\020P\315\310?\346q\254\020P\315\310?\312\273\3307\365\274\303?\327y\345\005\372-\366\277[Cv\206\326\300l?\005\327+\002l\205w?HY\316Xn6\207?G\302\311\332e\224\365\277y1nE\275J\305?\346q\254\020P\315\310?\346q\254\020P\315\310?M\3566#i\327\002\300\224\023\310f\221c\373\277~\016p\206\326\300l?\321\320+\002l\205w?HY\316Xn6\207?Y\202V\211j\250\350?\2555\0321\241Q\361\277\346q\254\020P\315\310?\346q\254\020P\315\310?G\267\005\2456\260\305\277\t\177\316$\226\347\003\300ovu\206\326\300l?\005\302+\002l\205w?HY\316Xn6\207?\022\224\254\262k\234\365\277\260*\244\224G\216\260?\346q\254\020P\315\310?\346q\254\020P\315\310?\200K[F\360\240\005\300`NG\r\033\221\006\300\3451o\206\326\300l?\255\273+\002l\205w?HY\316Xn6\207?Y\202V\211j\250\350?\244K\220N(U\362\277\346q\254\020P\315\310?\346q\254\020P\315\310?\225\031`\024f \333\277\344\227\373!\3231\001\300Y\325t\206\326\300l?z\310+\002l\205w?HY\316Xn6\207?\240\341\332\351\242\244\365\277\330\202\214\357\250\350\240\277\346q\254\020P\315\310?\346q\254\020P\315\310?\227\334P\334\226=\010\300\023\033d\007\247I\013\300-cn\206\326\300l?n\260+\002l\205w?HY\316Xn6\207?Y\202V\211j\250\350?A\270\026JVE\363\277\346q\254\020P\315\310?\346q\254\020P\315\310?a\210\"\225\333\325\345\277\'b\310}\307\036\004\300\2541t\206\326\300l?\201\301+\002l\205w?HY\316Xn6\207?2\352>\004)\255\365\277\003Cz\310\rA\300\277\346q\254\020P\315\310?\346q\254\020P\315\310?\244\370\n\275\333z\n\300\232\272zN\213r\001\300\360\261m\206\326\300l?\337\307+\002l\205w?HY\316Xn6\207?Y\202V\211j\250\350?\200\244\n\367\311!\364\277\346q\254\020P\315\310?\346q\254\020P\315\310?\307r5\263\023.\357\277j\217+\033\231\243\370\277\307xs\206\326\300l?\030\324+\002l\205w?HY\316Xn6\207?\030\233\206\347\204\265\365\277\001P\266\230(\252\313\277\346q\254\020P\315\310?\346q\254\020P\315\310?\021oW\3140\341\014\300;\300\003\031\217\230\006\300\003\364l\206\326\300l?\234\273+\002l\205w?HY\316Xn6\207?Y\202V\211j\250\350?\333\245\031\347}\354\364\277\346q\254\020P\315\310?\346q\254\020P\315\310?u\0262dmx\363\277C?\310Y\346\273\375\2777\337r\206\326\300l?\006\316+\002l\205w?HY\316Xn6\207?*2=\373#\276\365\277\374\333\364\261\002P\323\277\346q\254\020P\315\310?\346q\254\020P\315\310?{\010\372\266\311\354\016\300@@\177\266w\373\372\277\"Rl\206\326\300l?M\321+\002l\205w?HY\316Xn6\207?Y\202V\211j\250\350?\017H\3113\370\244\365\277\346q\254\020P\315\310?\346q\254\020P\315\310?\317\216\316\347\246\250\367\2775@K\256\270\260\367\277x9r\206\326\300l?8\325+\002l\205w?HY\316Xn6\207?\023\336!\341\270\306\365\277\362\017\364u\256\207\330\277\346q\254\020P\315\310?\346q\254\020P\315\310?\310\000<yI\212\020\300\273\010\352\344S\345\373\277\213\247k\206\326\300l?6\320+\002l\205w?HY\316Xn6\207?Y\202V\211j\250\350?\25175\307]L\366\277\346q\254\020P\315\310?\346q\254\020P\315\310?\274\260\202f\257\220\373\277;\022\240.\t\337\373\277\341\236q\206\326\300l?>\320+\002l\205w?HY\316Xn6\207?\367H\252\301M\317\365\277S\200^\314\351\204\335\277\346q\254\020P\315\310?\346q\254\020P\315\310?]U~\357\367n\021\300\236\207\025n\034\253\000\300$\032k\206\326\300l?\273\311+\002l\205w?HY\316Xn6\207?Y\202V\211j\250\350?\211\377\360\010\316\345\366\277\346q\254\020P\315\310?\346q\254\020P\315\310?\035\230g}9#\000\300\246\024\215\032\005J\007\300~\344p\206\326\300l?\364\271+\002l\205w?HY\316Xn6\207?Jz\'\004\321\327\365\277\373W\332\035\334 \341\277\346q\254\020P\315\310?\346q\254\020P\315\310?%\t\177\201l|\022\300\273\205\200X\027X\001\300\207sj\206\326\300l?\036\310+\002l\205w?HY\316Xn6\207?Y\202V\211j\250\350?\222\256\271\013Mn\367\277\346q\254\020P\315\310?\346q\254\020P\315\310??<\3252\243$\002\300\3445\341\360O\277\377\277\303Ep\206\326\300l?\237\313+\002l\205w?HY\316Xn6\207?f]\365<E\340\365\277:2\331\205\016]\343\277\365L~\006\274\244\024\300\365L~\006\274\244\024\300SlK\342AU\023\300P\347\244a\022\024\366\277u\272\333\016\316](@3n\346\205\006\257)@\265t\3337\027\n5\300Y\202V\211j\250\350?\3133\301hb\350\367\277\346q\254\020P\315\310?\346q\254\020P\315\310?\365\037/\024\246i\327?\007)\340B\375\362\350?X\311v\206\326\300l?M\000,\002l\205w?HY\316Xn6\207?Y\202V\211j\250\350?X\354\373,6\227\362?\346q\254\020P\315\310?\346q\254\020P\315\310?\231D\327\224\256\367\325?\265\374\213\276\010a\272?\014\273v\206\326\300l?h\363+\002l\205w?HY\316Xn6\207?Y\202V\211j\250\350?K\031\200\244\227\333\360?\346q\254\020P\315\310?\346q\254\020P\315\310?\235\300\357\'\207G\325?\'\203\'\211\377\316\274?=\264v\206\326\300l?\226\363+\002l\205w?HY\316Xn6\207?Y\202V\211j\250\350?\r\352\240\275RA\356?\346q\254\020P\315\310?\346q\254\020P\315\310?E\200\232\344\227\212\325?\013\374z\037\303\241\324?\325\266v\206\326\300l?\226\367+\002l\205w?HY\316Xn6\207?Y\202V\211j\250\350?\312C\343\300\267\313\352?\346q\254\020P\315\310?\346q\254\020P\315\310?r\256Z\\?\250\326?\346\364 r\'\177\252\277\336\301v\206\326\300l?t\360+\002l\205w?HY\316Xn6\207?Y\202V\211j\250\350?m\3656\250\254R\347?\346q\254\020P\315\310?\346q\254\020P\315\310?\303\353H\236\316u\326? \306\271br\214\323\277\353\277v\206\326\300l?\236\353+\002l\205w?HY\316Xn6\207?Y\202V\211j\250\350?L\3470\212%\331\343?\346q\254\020P\315\310?\346q\254\020P\315\310?\021\233&Nb\202\330?\372/\210\252\223\r\330?1\324v\206\326\300l?\233\370+\002l\205w?HY\316Xn6\207?Y\202V\211j\250\350?\307\261\021\010\033^\340?\346q\254\020P\315\310?\346q\254\020P\315\310?\023rL\206u\232\325?o0M=f\375\311?q\267v\206\326\300l?P\365+\002l\205w?HY\316Xn6\207?Y\202V\211j\250\350?\255,\266\377+\320\331?\346q\254\020P\315\310?\346q\254\020P\315\310?J\356\321#\\#\325?K\034\304\345\334\206\272?\327\262v\206\326\300l?j\363+\002l\205w?HY\316Xn6\207?Y\202V\211j\250\350?\274\360|\302O\345\322?\346q\254\020P\315\310?\346q\254\020P\315\310?\245\371\264~\201e\324?HR2\336\3009\317\277\200\253v\206\326\300l?\313\354+\002l\205w?HY\316Xn6\207?Y\202V\211j\250\350?\246\377jL\355\365\307?\346q\254\020P\315\310?\346q\254\020P\315\310?)\031\311\261Z\245\327?C\005M+t]\347?\246\313v\206\326\300l?\\\377+\002l\205w?HY\316Xn6\207?Y\202V\211j\250\350?\242O\303\365Y,\264?\346q\254\020P\315\310?\346q\254\020P\315\310?\204\271\200\352\237V\325?\2450\236\007ck\315\277\323\264v\206\326\300l?\020\355+\002l\205w?HY\316Xn6\207?Y\202V\211j\250\350?\322\177y\354;(\236\277\346q\254\020P\315\310?\346q\254\020P\315\310?\340\227\356\007\237\237\326?n\257\372\312m\365\345?\211\301v\206\326\300l?\205\376+\002l\205w?HY\316Xn6\207?Y\202V\211j\250\350?\271y\022\337\341\234\301\277\346q\254\020P\315\310?\346q\254\020P\315\310?\342\375d>@\312\324?&\230E\334\315\275\311\277f\257v\206\326\300l?\234\355+\002l\205w?HY\316Xn6\207?Y\202V\211j\250\350?\210\316\247w\254r\317\277\346q\254\020P\315\310?\346q\254\020P\315\310?\204\361\324\013\245M\325?\313C\355\355y\033\320?z\264v\206\326\300l?=\366+\002l\205w?HY\316Xn6\207?Y\202V\211j\250\350? \021\245\266\300\242\326\277\346q\254\020P\315\310?\346q\254\020P\315\310?WA\3248\272\266\276?\212\017J\327&\\\004\300\257-v\206\326\300l?\360\300+\002l\205w?HY\316Xn6\207?Y\202V\211j\250\350?\322\376\246{\032k\335\277\346q\254\020P\315\310?\346q\254\020P\315\310?NQ\356\216hZ\313\2774k\357[\355\344\005\300iZu\206\326\300l?G\275+\002l\205w?HY\316Xn6\207?Y\202V\211j\250\350?\200\266\363Q\'\361\341\277\346q\254\020P\315\310?\346q\254\020P\315\310?\341\352\033\007\022\006\342\277\014\355T\206\323S\003\300\027}t\206\326\300l?e\303+\002l\205w?HY\316Xn6\207?Y\202V\211j\250\350?\035\017e\360g\000\345\277\346q\254\020P\315\310?\346q\254\020P\315\310?\372\234\241\261\241\340\355\277\345%\255#\330\231\010\300\213\222s\206\326\300l?\325\266+\002l\205w?HY\316Xn6\207?Y\202V\211j\250\350?\337\276\025`(\344\347\277\346q\254\020P\315\310?\346q\254\020P\315\310?<hdT\334r\364\2771\222S\252\306\004\005\300\201\270r\206\326\300l?^\277+\002l\205w?HY\316Xn6\207?Y\202V\211j\250\350?\036\374\321#\262\233\352\277\346q\254\020P\315\310?\346q\254\020P\315\310?\327\'g\334\212\032\372\277\006m;\210\002&\014\300\270\330q\206\326\300l?a\256+\002l\205w?HY\316Xn6\207?Y\202V\211j\250\350?H\001\310\302\221*\355\277\346q\254\020P\315\310?\346q\254\020P\315\310?\026\016\323^\204>\377\277\264/\361\035\312\220\n\300J\rq\206\326\300l?&\262+\002l\205w?HY\316Xn6\207?Y\202V\211j\250\350?5\017\016j\334\220\357\277\346q\254\020P\315\310?\346q\254\020P\315\310?\242\0269\353\232E\002\300\254SC\'Br\t\300\222;p\206\326\300l?\321\264+\002l\205w?HY\316Xn6\207?Y\202V\211j\250\350?e\200M,\300\346\360\277\346q\254\020P\315\310?\346q\254\020P\315\310?\217\316\307\377v\211\004\300\347\n\353\344\364\366\003\300M\210o\206\326\300l?\340\301+\002l\205w?HY\316Xn6\207?Y\202V\211j\250\350?X\357l\2044\362\361\277\346q\254\020P\315\310?\346q\254\020P\315\310?F\205A\352\363\311\006\300^>O\251\311J\003\300\022\326n\206\326\300l?z\303+\002l\205w?HY\316Xn6\207?Y\202V\211j\250\350?d)F\202\346\353\362\277\346q\254\020P\315\310?\346q\254\020P\315\310?\243\205(\004Y\212\t\300\024\005gW\276r\004\300M\374m\206\326\300l?\271\300+\002l\205w?HY\316Xn6\207?Y\202V\211j\250\350?\347w>\247^\320\363\277\346q\254\020P\315\310?\346q\254\020P\315\310?\351\265\366\375\253\233\013\300\267/g\365]\035\000\300\247Xm\206\326\300l?\014\313+\002l\205w?HY\316Xn6\207?Y\202V\211j\250\350?\216\317\213;\223\243\364\277\346q\254\020P\315\310?\346q\254\020P\315\310?\r\322\213\177\316\334\r\300/\200\241\312\212\262\366\2779\246l\206\326\300l?g\326+\002l\205w?HY\316Xn6\207?Y\202V\211j\250\350?\021\352?F\355c\365\277\346q\254\020P\315\310?\346q\254\020P\315\310?\026\2609\001\020!\020\300\230\255y]1\311\001\300\233\350k\206\326\300l?\021\307+\002l\205w?HY\316Xn6\207?Y\202V\211j\250\350?&\313\014\343\261\022\366\277\346q\254\020P\315\310?\346q\254\020P\315\310?\\\363n\031\207@\021\3005\217\361\303q\262\000\300\3346k\206\326\300l?\251\311+\002l\205w?HY\316Xn6\207?Y\202V\211j\250\350?\316\216XBK\257\366\277\346q\254\020P\315\310?\346q\254\020P\315\310?\333B\376\351\325\t\022\300\361\366\003\305\346)\365\277b\272j\206\326\300l?;\330+\002l\205w?HY\316Xn6\207?Y\202V\211j\250\350?\227\205\216\177\216=\367\277\346q\254\020P\315\310?\346q\254\020P\315\310?\037\336\200\326\234C\327?y\231\022\272\200\304\201\277\337\307v\206\326\300l?G\361+\002l\205w?HY\316Xn6\207?<\000\366\020\365_\365\277D\370\260\231\227\340\362?\346q\254\020P\315\310?\346q\254\020P\315\310?D\021Z\251\272\000\326?\005d\322\354&\221\265?e\273v\206\326\300l?\014\363+\002l\205w?HY\316Xn6\207?\337I8\240\351_\365\277_.\002\203\347$\361?\346q\254\020P\315\310?\346q\254\020P\315\310?\227\315<78~\326?cV\002\010\307&\321\277>\300v\206\326\300l?V\354+\002l\205w?HY\316Xn6\207?cd\323\000\370_\365\277\212\031\232\032E\320\356?\346q\254\020P\315\310?\346q\254\020P\315\310?\002m\310LGm\327?\365\2351Y\021}\356?{\311v\206\326\300l?\232\003,\002l\205w?HY\316Xn6\207?\306T\247\274\361_\365\2771\000\027\014@Y\353?\346q\254\020P\315\310?\346q\254\020P\315\310?\033\256\237\324\300\036\330?e\234\032\274u\016\325?X\320v\206\326\300l?\266\367+\002l\205w?HY\316Xn6\207?\350\230\316\247\360_\365\277\031\246\242!\272\336\347?\346q\254\020P\315\310?\346q\254\020P\315\310?Ef|\225\032B\330?\000\206N\376nV\352?\265\321v\206\326\300l?!\001,\002l\205w?HY\316Xn6\207?\226|\313\006\n`\365\277W|\357G\264e\344?\346q\254\020P\315\310?\346q\254\020P\315\310?\251N\260\327\306\202\330?\021\321{U\\ \343?5\324v\206\326\300l?\325\374+\002l\205w?HY\316Xn6\207?\222m\233\3330`\365\277G\034\335]o\353\340?\346q\254\020P\315\310?\346q\254\020P\315\310?\330\001\330\370\220X\326?n\320\350N\014?\351?\312\276v\206\326\300l?{\000,\002l\205w?HY\316Xn6\207?,V\375lH>\365\277Q\201\251~)\221\000@\346q\254\020P\315\310?\346q\254\020P\315\310?\342\272\251\274\327x\325?\222\245\333c!l\300?$\266v\206\326\300l?\344\363+\002l\205w?HY\316Xn6\207?\306V~T4`\365\277\213\036\220 \314\352\332?\346q\254\020P\315\310?\346q\254\020P\315\310?\304H\312?\254(\325?S\323i\344\252\361\326?\013\263v\206\326\300l?F\370+\002l\205w?HY\316Xn6\207?\033\234\327\322>>\365\277p|\023\220\341g\377?\346q\254\020P\315\310?\346q\254\020P\315\310?\371\376\006|l\372\324?\t\340F\273\200\211\204?B\261v\206\326\300l?\243\361+\002l\205w?HY\316Xn6\207?M\266q\240+`\365\277\305OX\006\341\377\323?\346q\254\020P\315\310?\346q\254\020P\315\310?-\213\306\3248\214\324?h\266\236\235,p\323\277\000\255v\206\326\300l?\247\353+\002l\205w?HY\316Xn6\207?C\2405bC>\365\277\262\212\344\206\335\254\375?\346q\254\020P\315\310?\346q\254\020P\315\310?\220\221\304\2437\016\327?\250\226W\274\"\330\345?\317\305v\206\326\300l?t\376+\002l\205w?HY\316Xn6\207?\026d\241\306\037`\365\2779\214\263\212\231#\312?\346q\254\020P\315\310?\346q\254\020P\315\310?5F\233\232^\323\327?]yA\300\2372\342?n\315v\206\326\300l?H\374+\002l\205w?HY\316Xn6\207?&\352(\370G>\365\277\300\242\355\013<\360\373?\346q\254\020P\315\310?\346q\254\020P\315\310?{\016\001\336\364\220\330?\245\031\214\031\206\321\347?\301\324v\206\326\300l?\241\377+\002l\205w?HY\316Xn6\207?\313\353\245\235%`\365\277\314W\263\254\331y\270?\346q\254\020P\315\310?\346q\254\020P\315\310?\276\361oc- \330?\212\371k\375:=\361?f\320v\206\326\300l?\373\005,\002l\205w?HY\316Xn6\207?#+\260\031;>\365\277\'\"o\n74\372?\346q\254\020P\315\310?\346q\254\020P\315\310?@\253\211\270\355\205\324?\312\006\374y\\d\323\277\302\254v\206\326\300l?\252\353+\002l\205w?HY\316Xn6\207?\330\311\316\331)`\365\2773\355\362_a\221\211\277\346q\254\020P\315\310?\346q\254\020P\315\310?\033\334hu\014l\327?\355\334\364\25465\324?p\311v\206\326\300l?u\367+\002l\205w?HY\316Xn6\207?\240\300\210\333Z>\365\277*\330\"\305\211w\370?\346q\254\020P\315\310?\346q\254\020P\315\310?W;\330\234\230\271\326?`]\014\376\225X\343?\212\302v\206\326\300l?\367\374+\002l\205w?HY\316Xn6\207?\032\262\0023\035`\365\277\326vef\333\345\276\277\346q\254\020P\315\310?\346q\254\020P\315\310?}\017\332\225`\371\327?\223\206AJ\340\343\321?\346\316v\206\326\300l?\305\366+\002l\205w?HY\316Xn6\207?\030\363\332\210p>\365\277E\004\370\303E\272\366?\346q\254\020P\315\310?\346q\254\020P\315\310?\267\303\014\023\223\217\330? \355\365Uj\360\356?\263\324v\206\326\300l?\337\003,\002l\205w?HY\316Xn6\207?\301\260\226\321\032`\365\277|\316\365\026`U\315\277\346q\254\020P\315\310?\346q\254\020P\315\310?\027\257\000\226\007\264\324?\365\257\225\357@4\340\277\211\256v\206\326\300l?\313\347+\002l\205w?HY\316Xn6\207?\243\355\255\340k>\365\277\004\217\371H\307\376\364?\346q\254\020P\315\310?\346q\254\020P\315\310?I}|\261A\354\326?H/:\327\n\004\357?\177\304v\206\326\300l?\352\003,\002l\205w?HY\316Xn6\207?Y\202V\211j\250\350?2<\022)U\225\325\277\346q\254\020P\315\310?\346q\254\020P\315\310?\010\007\377\273\036\277\327?Y\273\256>G\023\335?\245\314v\206\326\300l?\032\372+\002l\205w?HY\316Xn6\207??\217\r\302|>\365\277\276\244\330\255\rB\363?\346q\254\020P\315\310?\346q\254\020P\315\310?\t\306\262\317\332\251\304?\022\202\302eB\034\006\300\356Gv\206\326\300l?\303\274+\002l\205w?HY\316Xn6\207?Y\202V\211j\250\350?\304\240tLzi\334\277\346q\254\020P\315\310?\346q\254\020P\315\310?\263}\352\303\002\301\327?\241\256\260\337\377-\333?\267\314v\206\326\300l?\211\371+\002l\205w?HY\316Xn6\207?\203\270A\366o?\365\277\004\347\301\020G\205\361?\346q\254\020P\315\310?\346q\254\020P\315\310?6\231\034\201@\274\304\277\036<y!S\256\006\300&{u\206\326\300l?g\273+\002l\205w?HY\316Xn6\207?Y\202V\211j\250\350?\027\366f\372\023w\341\277\346q\254\020P\315\310?\346q\254\020P\315\310?\214\3111\343ME\330?\021)\022\361\024\245\352?\325\321v\206\326\300l?P\001,\002l\205w?HY\316Xn6\207?\240A\322\206\233A\365\277|\023\315\212v\221\357?\346q\254\020P\315\310?\346q\254\020P\315\310?\300\256\203x\275\020\341\277\351\261e\2718\331\002\300\r\220t\206\326\300l?\211\304+\002l\205w?HY\316Xn6\207?Y\202V\211j\250\350?S\373\021G\327\211\344\277\346q\254\020P\315\310?\346q\254\020P\315\310?\376\003\025#\357\347\326?^Z\325\225J\332\277?U\304v\206\326\300l?\320\363+\002l\205w?HY\316Xn6\207?\025\013/\213\370D\365\277z\023[\342\206\030\354?\346q\254\020P\315\310?\346q\254\020P\315\310?\215\331\244\207\000\033\354\277tX\313\301\205\362\004\300\234\265s\206\326\300l?\211\277+\002l\205w?HY\316Xn6\207?Y\202V\211j\250\350?!R\212p\327r\347\277\346q\254\020P\315\310?\346q\254\020P\315\310?\"\242\334\352e\261\327?\230=\235\022\"n\352?\035\314v\206\326\300l?/\001,\002l\205w?HY\316Xn6\207?\225\346\303\346{I\365\277$\317%l\221\240\350?\346q\254\020P\315\310?\346q\254\020P\315\310?\237Ja\245E\301\363\277\350\021_\256~\250\006\300\364\323r\206\326\300l?u\273+\002l\205w?HY\316Xn6\207?Y\202V\211j\250\350?\020=\304\354z0\352\277\346q\254\020P\315\310?\346q\254\020P\315\310?|\213\256C\035L\326?\337_\024\343\267\242\300\277O\276v\206\326\300l?\367\356+\002l\205w?HY\316Xn6\207?g\271\016\241/O\365\277%AP\246\365\'\345?\346q\254\020P\315\310?\346q\254\020P\315\310?\031\030\235\006\030A\371\277\372\334\352\020F\256\010\300T\372q\206\326\300l?\243\266+\002l\205w?HY\316Xn6\207?Y\202V\211j\250\350?/;m\305j\304\354\277\346q\254\020P\315\310?\346q\254\020P\315\310??\200\274T\337\341\327?\235\331\231\032\203\352\322?\375\315v\206\326\300l?\023\367+\002l\205w?HY\316Xn6\207?\024\32529\037V\365\277w\220!\\\324\255\341?\346q\254\020P\315\310?\346q\254\020P\315\310?\213N=\306\322!\376\277\3073\365\026\241\313\001\300M9q\206\326\300l?\013\307+\002l\205w?HY\316Xn6\207?Y\202V\211j\250\350?3`\3621y/\357\277\346q\254\020P\315\310?\346q\254\020P\315\310?\312\025:\023\374\037\325?\373\252\274\0022\'\343\277\266\262v\206\326\300l?\t\346+\002l\205w?HY\316Xn6\207?\243\020\207\376\010^\365\277\212\330\346\312\312k\334?\346q\254\020P\315\310?\346q\254\020P\315\310?\257\313\262\222\240w\001\300\017\203)\227\220k\001\300A{p\206\326\300l?\360\307+\002l\205w?HY\316Xn6\207?Y\202V\211j\250\350?\224&\262\033\203\272\360\277\346q\254\020P\315\310?\346q\254\020P\315\310?\006\300\235\222\305o\324?&\377\017#\337\256\336\277\346\253v\206\326\300l?N\350+\002l\205w?HY\316Xn6\207?\352\336.\223\374f\365\277\006\212Y\304~\177\325?\346q\254\020P\315\310?\346q\254\020P\315\310?YH\336+~\363\003\300\303\017qD\353\211\373\277\252\266o\206\326\300l?\243\320+\002l\205w?HY\316Xn6\207?Y\202V\211j\250\350?\367\305w\262&\311\361\277\346q\254\020P\315\310?\346q\254\020P\315\310?^s\006 P\352\325? \341\265=\030\021\341?\210\272v\206\326\300l?\233\373+\002l\205w?HY\316Xn6\207?\321}&&\354p\365\277\361*\266\233u)\315?\346q\254\020P\315\310?\346q\254\020P\315\310?e\345@\250\357\327\006\300\343zN\245lz\t\300\277\321n\206\326\300l?\275\264+\002l\205w?HY\316Xn6\207?Y\202V\211j\250\350?\266\212\211\002\331\303\362\277\346q\254\020P\315\310?\346q\254\020P\315\310?\317I \261\260\364\304?\241I\257\341\237w\007\300`Iv\206\326\300l?\210\271+\002l\205w?HY\316Xn6\207?(hI\370\320{\365\277\204\3263\362\313\366\276?\346q\254\020P\315\310?\346q\254\020P\315\310?r4\201\031\337J\t\300\200^\373\t3\r\002\300\354\017n\206\326\300l?o\306+\002l\205w?HY\316Xn6\207?Y\202V\211j\250\350?xNN\266\305\251\363\277\346q\254\020P\315\310?\346q\254\020P\315\310?\220\262\217\\5\200\275\277\207\344\352oRD\375\277\301\230u\206\326\300l?\223\316+\002l\205w?HY\316Xn6\207?\031\315}\326\253\206\365\277k\254G4\3533\223?\346q\254\020P\315\310?\346q\254\020P\315\310?\222\340-:\352~\013\300\t8Y\364\220n\377\277\212am\206\326\300l?\000\314+\002l\205w?HY\316Xn6\207?Y\202V\211j\250\350?\303\251\250R\333}\364\277\346q\254\020P\315\310?\346q\254\020P\315\310?\242\036\233//g\331\277aP\034\341\017\260\002\300e\346t\206\326\300l?\353\304+\002l\205w?HY\316Xn6\207??\231\305\254z\221\365\277\211\274\313\263\"U\264\277\346q\254\020P\315\310?\346q\254\020P\315\310?\'j/\360\240u\r\300\227h\2425\377\254\001\300\036\306l\206\326\300l?T\307+\002l\205w?HY\316Xn6\207?Y\202V\211j\250\350?)\005M\003\306B\365\277\346q\254\020P\315\310?\346q\254\020P\315\310?5\222\355\376\312M\345\277C\"!]o\251\000\3000<t\206\326\300l?\277\311+\002l\205w?HY\316Xn6\207?\322\266N\333<\234\365\277\217\344$+g3\306\277\346q\254\020P\315\310?\346q\254\020P\315\310?6\235\221\215\231\017\020\300\204\"I\211\351d\t\300g\363k\206\326\300l?\361\264+\002l\205w?HY\316Xn6\207?Y\202V\211j\250\350?` r\343`\364\365\277\346q\254\020P\315\310?\346q\254\020P\315\310?H\353\343~\206i\357\277\277\226\206\323 G\004\300-ts\206\326\300l?!\301+\002l\205w?HY\316Xn6\207?\375JSR\n\247\365\277\355\267m\004`\323\320\277\346q\254\020P\315\310?\346q\254\020P\315\310?\\D\315\026\367\r\021\300\373/\003\005\346O\002\300\037Vk\206\326\300l?\320\305+\002l\205w?HY\316Xn6\207?Y\202V\211j\250\350?\344\364ky}\224\366\277\346q\254\020P\315\310?\346q\254\020P\315\310?+rY\327\246Z\364\277\366\250\266\336fh\006\300?\274r\206\326\300l?\016\274+\002l\205w?HY\316Xn6\207?Y\245\205\342\261\261\365\277\273Hf\224=G\326\277\346q\254\020P\315\310?\346q\254\020P\315\310?\2246h\022S\360\021\300\207\227m\301Y\370\000\300(\312j\206\326\300l?\003\311+\002l\205w?HY\316Xn6\207?Y\202V\211j\250\350?I\355\261\300\327%\367\277\346q\254\020P\315\310?\346q\254\020P\315\310?\303-\334\254O\334\367\277(\247\024\360\337\246\373\277{1r\206\326\300l?\201\320+\002l\205w?HY\316Xn6\207?\222Y}\242`\274\365\277\250{,ao}\333\277\346q\254\020P\315\310?\346q\254\020P\315\310?\241\307\310\252P\014\023\300\321k\036\200\377\376\374\277\216\032j\206\326\300l?\346\316+\002l\205w?HY\316Xn6\207?Y\202V\211j\250\350?\006\\\303\303\266\244\367\277\346q\254\020P\315\310?\346q\254\020P\315\310?\356\\3B\220\316\373\277C\021\316:\222\000\377\277Q\225q\206\326\300l?\203\314+\002l\205w?HY\316Xn6\207?\344\207\375_\026\307\365\277\016\332F\367\030<\340\277\365L~\006\274\244\024\300\365L~\006\274\244\024\3007\217\np\376\351\023\300\303\230\345\016\217\003\374\277\221\313\373\312\325\340=@\r\005`{t\2566@^w<@\022\317K\300Y\202V\211j\250\350?T\373P\377#\030\370\277\346q\254\020P\315\310?\346q\254\020P\315\310?5\207\025\214\010\216\325?\034 %\003\256x\255\277\366\266v\206\326\300l?Y\360+\002l\205w?HY\316Xn6\207?mc\273=\214h\365\277\275\206\356\363\025\250\361?\346q\254\020P\315\310?\346q\254\020P\315\310?\374\222\002V\377m\330?l\345\244-U\201\333?h\323v\206\326\300l?\242\371+\002l\205w?HY\316Xn6\207?P\270\037H[n\365\277+z\214\320Z\325\357?\346q\254\020P\315\310?\346q\254\020P\315\310?]\224\337Z\263S\324?P\376\200~p\'\344\277\320\252v\206\326\300l?p\345+\002l\205w?HY\316Xn6\207?\250\374y\t\323t\365\277\274{e\362\271^\354?\346q\254\020P\315\310?\346q\254\020P\315\310?v\3372\n\376\306\324?\363(\247&\251\221\346\277E\257v\206\326\300l?\000\344+\002l\205w?HY\316Xn6\207?\202\r\245\0047|\365\277\225\277hW\375\346\350?\346q\254\020P\315\310?\346q\254\020P\315\310?\243g\032\277\315\026\327?\n\010^\327\220\221\356?$\306v\206\326\300l?\246\003,\002l\205w?HY\316Xn6\207?\201f/\324\205\204\365\277\206/\320,\254p\345?\346q\254\020P\315\310?\346q\254\020P\315\310?\356\247\271\356\233\017\312?L8Z\304\017\317\365\277\241bv\206\326\300l?v\327+\002l\205w?HY\316Xn6\207?P\370N\022\371\214\365\277\327U)\304\225\005\342?\346q\254\020P\315\310?\346q\254\020P\315\310?R\341!\265\263\240\212?u\021*\272!\203\356\277\362\351u\206\326\300l?D\337+\002l\205w?HY\316Xn6\207?\367\310\347R\r\225\365\277n\r\252\324\341f\335?\346q\254\020P\315\310?\346q\254\020P\315\310?\355\375\322@\262\217\301\277\243u\303\005\265:\342\277\331\212u\206\326\300l?\225\346+\002l\205w?HY\316Xn6\207?\201\266\303\200\327\234\365\277 \301G\033[\352\326?\346q\254\020P\315\310?\346q\254\020P\315\310?\234\371Rj\364\242\321\277?y)b\006\332\357\277<3u\206\326\300l?x\336+\002l\205w?HY\316Xn6\207?}\335\300\226)\244\365\2777\266\301\261\375\214\320?\346q\254\020P\315\310?\346q\254\020P\315\310?\313\022\027H\276\024\332\277\226\013sTY\357\325\277\260\337t\206\326\300l?\351\352+\002l\205w?HY\316Xn6\207?\334\255X\201\362\252\365\277\367\013\315\326\227\251\304?\346q\254\020P\315\310?\346q\254\020P\315\310?\r\316\r$u\356\336\277\016C\340C\033\372\333\277\265\257t\206\326\300l?\034\351+\002l\205w?HY\316Xn6\207?\336\206\351\363t\261\365\277\003z \276\315\272\260?\346q\254\020P\315\310?\346q\254\020P\315\310?\253!+\213N\347\342\277\263\336\0315\t\020\331\277\257kt\206\326\300l?\372\351+\002l\205w?HY\316Xn6\207?+\034C=\216\267\365\277Co\243\207 \310\235\277\346q\254\020P\315\310?\346q\254\020P\315\310?wY\347\241\354\233\351\277v\350/P\376\250\006\300\000\347s\206\326\300l?t\273+\002l\205w?HY\316Xn6\207?6\002z\3064\276\365\277\206\323\3354\245\024\277\277\346q\254\020P\315\310?\346q\254\020P\315\310?S\006\\m\223\311\360\277WVX\344\203[\370\277dIs\206\326\300l?m\324+\002l\205w?HY\316Xn6\207?\021A8\371\344\304\365\277\357\177s\320[\316\312\277\346q\254\020P\315\310?\346q\254\020P\315\310?\3742W\252{@\364\277\022YS\376\277\001\347\277I\300r\206\326\300l?\275\343+\002l\205w?HY\316Xn6\207?\306\034\214n\255\313\365\277\256\234\255\025\030\316\322\277\346q\254\020P\315\310?\346q\254\020P\315\310?>=\3478U\377\370\277A\237\026\177\033\374\004\300\177\004r\206\326\300l?r\277+\002l\205w?HY\316Xn6\207?\245\3739\247\311\322\365\277\035(\023\3479\371\327\277\346q\254\020P\315\310?\346q\254\020P\315\310?\243\357\027p\262`\375\277F\256\177<Ua\001\300\'Wq\206\326\300l?\010\310+\002l\205w?HY\316Xn6\207?\374v\001C\305\331\365\277\274\\\227\215\242\335\334\277\346q\254\020P\315\310?\346q\254\020P\315\310?\321\037\371J\311\225\000\300\2631+k\000\r\002\300\023\301p\206\326\300l?p\306+\002l\205w?HY\316Xn6\207?\310\233Ts\345\340\365\277\332W74\016\304\340\277\346q\254\020P\315\310?\346q\254\020P\315\310?\n\257\341\246\275Q\002\300#\301\202E\020\367\376\277\3227p\206\326\300l?\215\314+\002l\205w?HY\316Xn6\207?\335O0t+\350\365\277\2729JQd\375\342\277\346q\254\020P\315\310?\346q\254\020P\315\310?B\352$\210\032`\004\300\377\314)\220\367V\003\300\026\225o\206\326\300l?]\303+\002l\205w?HY\316Xn6\207?\271aV\356g\357\365\277\345\325\236\023\262\030\345\277\346q\254\020P\315\310?\346q\254\020P\315\310?\036\230\201t\2315\006\300\331/\302\307+\223\372\277\357\003o\206\326\300l?\311\321+\002l\205w?HY\316Xn6\207?\3646\364\231\233\366\365\277\267\347/C\007\025\347\277\346q\254\020P\315\310?\346q\254\020P\315\310?`tyG\230\275\007\300NG\000\323^\206\373\277\277\212n\206\326\300l?\247\320+\002l\205w?HY\316Xn6\207?\275\261nY\345\375\365\277\3064^\031\347\371\350\277\346q\254\020P\315\310?\346q\254\020P\315\310?\024aU\276\3202\t\300\365\303\256\376\034S\354\277\\\027n\206\326\300l?\222\340+\002l\205w?HY\316Xn6\207?\302\003V\212\000\004\366\277\306|l\254L\305\352\277\346q\254\020P\315\310?\346q\254\020P\315\310?\373\204a\026e\242\t\300\233K\3747\277j\327\277\335\364m\206\326\300l?x\352+\002l\205w?HY\316Xn6\207?\3770dx\362\010\366\2774>\307\366\001\210\354\277\346q\254\020P\315\310?\346q\254\020P\315\310?=l\256 \300Y\t\300!\215\200\025a\372\205\277S\013n\206\326\300l?=\361+\002l\205w?HY\316Xn6\207?\306\201B\326\r\r\366\2773V\231\000\235M\356\277\346q\254\020P\315\310?\346q\254\020P\315\310?B\374\262\330\361q\t\300\321}\203\250\3220\335?\327\003n\206\326\300l?#\372+\002l\205w?HY\316Xn6\207?V\304\003\211&\020\366\277M_\222O\357\007\360\277\346q\254\020P\315\310?\346q\254\020P\315\310?\\\3719\320\025\374\010\300x\214\010=Nf\351?H(n\206\326\300l?\222\000,\002l\205w?HY\316Xn6\207?\342\217\217\207\231\022\366\277\354!\305%\325\353\360\277\346q\254\020P\315\310?\346q\254\020P\315\310?7Ol\264#\203\010\300\272!n\342\350\367\362?\254Mn\206\326\300l?\n\010,\002l\205w?HY\316Xn6\207?f\371\327B\260\024\366\277\305\214Z\274p\322\361\277\346q\254\020P\315\310?\346q\254\020P\315\310?Q;\025\207\\i\010\300\310a3e(\363\311\277\244Un\206\326\300l?\224\355+\002l\205w?HY\316Xn6\207?3\211e\\\\\026\366\277p\240{\375\360\273\362\277\346q\254\020P\315\310?\346q\254\020P\315\310?\3254f\231c<\t\300\374\2715\314~\224\000\300f\024n\206\326\300l?\361\311+\002l\205w?HY\316Xn6\207?\223\357x=\003\027\366\277\336\216\263X\376\241\363\277\346q\254\020P\315\310?\346q\254\020P\315\310?@;G\\\351\027\013\300\253\363|\214\033w\371\277c\201m\206\326\300l?\034\323+\002l\205w?HY\316Xn6\207?vR]\362\372\025\366\277b=\267\231\202x\364\277\346q\254\020P\315\310?\346q\254\020P\315\310?Q\022\364\270\223\300\r\300\270\354Q\\\344Q\003\300\363\256l\206\326\300l?j\303+\002l\205w?HY\316Xn6\207?\036\243\236\017&\023\366\277\342\220{\004\226;\365\277\346q\254\020P\315\310?\346q\254\020P\315\310?\031\353\353\372Z\216\017\300$G\2010t<\376\277/ l\206\326\300l?l\315+\002l\205w?HY\316Xn6\207?\356`{\360\313\016\366\277\022\3226SG\357\365\277\346q\254\020P\315\310?\346q\254\020P\315\310?\336\367Q\324\253\356\020\300>8\372\303\201&\000\300xik\206\326\300l?\367\312+\002l\205w?HY\316Xn6\207?\231\205\0148\225\010\366\277E\222\372\341\312\220\366\277\346q\254\020P\315\310?\346q\254\020P\315\310?c\245a\367\215\023\022\300um\372\223\240\273\001\300_\264j\206\326\300l?2\307+\002l\205w?HY\316Xn6\207?\311J\255\302\245\000\366\277\ni\003[M \367\277\346q\254\020P\315\310?\346q\254\020P\315\310?1\263n\347\332\001\023\300vp=\246\024\316\002\300\007!j\206\326\300l?\244\304+\002l\205w?HY\316Xn6\207?P\376Zf/\367\365\277\240\207\301\036\276\240\367\277\346q\254\020P\315\310?\346q\254\020P\315\310?%\2765\303\211\346\325?\273r\014\302E\226\337?b\272v\206\326\300l?\331\372+\002l\205w?HY\316Xn6\207?3\225g\323=\301\362\277\216\026V63\"\362?\346q\254\020P\315\310?\346q\254\020P\315\310?0\340i\014\320\273\327?y\317]*\355D\363?\204\314v\206\326\300l?e\010,\002l\205w?HY\316Xn6\207?^\364|\3765\301\362\277\232K\204+\322f\360?\346q\254\020P\315\310?\346q\254\020P\315\310?\364\010\224\226,\373\326?\2375\010/\240R\325?\023\305v\206\326\300l?\313\367+\002l\205w?HY\316Xn6\207?\354\315\357y<\301\362\277\0249_\240IU\355?\346q\254\020P\315\310?\346q\254\020P\315\310?\351\350\203\365%G\325?\374\217\374\236\230\363\232\277:\264v\206\326\300l?\360\360+\002l\205w?HY\316Xn6\207?\000I\261\371,\301\362\277\"\220;\r\370\336\351?\346q\254\020P\315\310?\346q\254\020P\315\310?\225\252P\267\276\235\325?\3510\273\362\017(\262?\222\267v\206\326\300l?\313\362+\002l\205w?HY\316Xn6\207?)\216\327\341!\301\362\277%\n\227\016^h\346?\346q\254\020P\315\310?\346q\254\020P\315\310?\334\367\306\266hu\326?-\253\010!\325\200\343?\350\277v\206\326\300l?\017\375+\002l\205w?HY\316Xn6\207?\220S\231\201\004\301\362\277e\247\r\241\021\362\342?\346q\254\020P\315\310?\346q\254\020P\315\310?\220\311\277P\207f\326?\3173Q\016\031\350\306\277U\277v\206\326\300l?\010\356+\002l\205w?HY\316Xn6\207?9\342\334\212\367\300\362\277\313\030\000TI\362\336?\346q\254\020P\315\310?\346q\254\020P\315\310?\216PB\t\333Z\325?t\350_\004y%\321\277\374\264v\206\326\300l?V\354+\002l\205w?HY\316Xn6\207?R\301\0067\371\300\362\277bKIw\351\003\330?\346q\254\020P\315\310?\346q\254\020P\315\310?\246\376{\356%v\330?\007\333d\033\037\200\351?\270\323v\206\326\300l?\241\000,\002l\205w?HY\316Xn6\207?^\223\221\213\002\301\362\277q0\353\225*\021\321?\346q\254\020P\315\310?\346q\254\020P\315\310?\001\203z\222Q\370\324?\003\331\036K\217\034\347\277-\261v\206\326\300l?\255\343+\002l\205w?HY\316Xn6\207?\352]\332\000\370\300\362\277\0047\226\230\216B\304?\346q\254\020P\315\310?\346q\254\020P\315\310?d\005F\306]/\330?\252\260\334\356\302Z\360?\374\320v\206\326\300l?\355\004,\002l\205w?HY\316Xn6\207?\272R\033\352\367\300\362\277-\n\216uZ\213\251?\346q\254\020P\315\310?\346q\254\020P\315\310?\371)\263\rxk\327?\375\247\260\n\272s\335?j\311v\206\326\300l?7\372+\002l\205w?HY\316Xn6\207?\304N\252W\006\301\362\277\300\177,\271X\372\255\277\346q\254\020P\315\310?\346q\254\020P\315\310?\310#\260H\356^\327?\251\375\340n\215\002\337?\356\310v\206\326\300l?\256\372+\002l\205w?HY\316Xn6\207?\350>\262~\r\301\362\277\246\234Xi\352^\305\277\346q\254\020P\315\310?\346q\254\020P\315\310?\227\304!\202\347j\326?wBy\305\3429\324?\200\277v\206\326\300l?w\367+\002l\205w?HY\316Xn6\207?\371t*\374\001\301\362\277h\342\030\311\350\234\321\277\346q\254\020P\315\310?\346q\254\020P\315\310?\212^\305\342^\343\324?\342r\210\215\210\003\333\277]\260v\206\326\300l?e\351+\002l\205w?HY\316Xn6\207?g\255\200\315\346\300\362\277<ww\"a\211\330\277\346q\254\020P\315\310?\346q\254\020P\315\310?\204>({U\215\235?$`x\360\270\222\013\300\375\363u\206\326\300l?\300\257+\002l\205w?HY\316Xn6\207?\227};\332*\300\362\277\0163\204\335\212A\337\277\346q\254\020P\315\310?\346q\254\020P\315\310?zl\215\351\036b\323\277\311:S>\331K\004\300\363!u\206\326\300l?\026\301+\002l\205w?HY\316Xn6\207?e\n\256\2511\276\362\277\377!\014k\244\320\342\277\346q\254\020P\315\310?\346q\254\020P\315\310?\321\247Y\240\331\216\344\277Y\360F\272Bk\374\277\362Jt\206\326\300l?\226\317+\002l\205w?HY\316Xn6\207?\351\372^\321\013\273\362\277\271y0j\326\323\345\277\346q\254\020P\315\310?\346q\254\020P\315\310?\356\020\345C\362\223\360\277\311\31020\024L\007\300\256Qs\206\326\300l?\357\271+\002l\205w?HY\316Xn6\207?\360\247\354\215\244\266\362\277S\345\344!W\252\350\277\346q\254\020P\315\310?\346q\254\020P\315\310?7$\027\221\177\373\365\277\265\272\323\335x\003\004\300\317{r\206\326\300l?\302\301+\002l\205w?HY\316Xn6\207?\250\3304\202\371\260\362\277\276C\312\337\217U\353\277\346q\254\020P\315\310?\346q\254\020P\315\310?&P\313\370]!\373\277\325\366\257\247\347\231\004\300\027\260q\206\326\300l?\\\300+\002l\205w?HY\316Xn6\207?N\356\200_:\252\362\277\337\265\'\226!\331\355\277\346q\254\020P\315\310?\346q\254\020P\315\310?\376UQE\237:\000\300\254\325\325\342\022\245\006\300A\335p\206\326\300l?}\273+\002l\205w?HY\316Xn6\207?\337A\026pa\242\362\277\354e\330\010!\032\360\277\346q\254\020P\315\310?\346q\254\020P\315\310?\261\303\003\333\274\334\002\300\r\035\320\312#\010\t\300\330\014p\206\326\300l?\316\265+\002l\205w?HY\316Xn6\207?Y\202V\211j\250\350?`\345H{\3003\361\277\346q\254\020P\315\310?\346q\254\020P\315\310?5\323-\021\326\003\005\300\020\000\210\370\3775\000\300xbo\206\326\300l?\321\312+\002l\205w?HY\316Xn6\207?Y\202V\211j\250\350?\216\305\347?\240:\362\277\346q\254\020P\315\310?\346q\254\020P\315\310?\300\003y\361\376\246\007\300g\314C\322;\364\372\277\273\221n\206\326\300l?V\321+\002l\205w?HY\316Xn6\207?Y\202V\211j\250\350?\377\270\271kU,\363\277\346q\254\020P\315\310?\346q\254\020P\315\310?!q9yvc\n\300\032\333\221\313\037\312\013\300,\271m\206\326\300l?<\257+\002l\205w?HY\316Xn6\207?Y\202V\211j\250\350?\350A\347y\312\013\364\277\346q\254\020P\315\310?\346q\254\020P\315\310?\265J;\310G\213\014\300\006\303~\t\230\335\001\300\222\016m\206\326\300l?\340\306+\002l\205w?HY\316Xn6\207?Y\202V\211j\250\350?*(L\031\026\330\364\277\346q\254\020P\315\310?\346q\254\020P\315\310?!\'\241\361;q\016\300)\355(\n\001T\373\277Uxl\206\326\300l?\343\320+\002l\205w?HY\316Xn6\207?Y\202V\211j\250\350?\350\202\244\013V\224\365\277\346q\254\020P\315\310?\346q\254\020P\315\310?\334/\373\220\204H\020\3007g\325\364\337\337\375\2775\320k\206\326\300l?\332\315+\002l\205w?HY\316Xn6\207?Y\202V\211j\250\350?\016\026\276\336\346?\366\277\346q\254\020P\315\310?\346q\254\020P\315\310?\2207\000\357\003t\021\300\3432\253\203\311\236\373\277\006\027k\206\326\300l?\212\320+\002l\205w?HY\316Xn6\207?Y\202V\211j\250\350?\010>\022S\212\330\366\277\346q\254\020P\315\310?\346q\254\020P\315\310?\272E\003f\352K\022\300E\341\352?\265X\363\277\206\221j\206\326\300l?f\332+\002l\205w?HY\316Xn6\207?Y\202V\211j\250\350?\022X\020\376\\b\367\277\346q\254\020P\315\310?\346q\254\020P\315\310?B\375\235\253o\310\326?$hO7\256D\322?\035\303v\206\326\300l?\342\366+\002l\205w?HY\316Xn6\207?\221VV\031\027\320\364\277\255_v\3259\033\363?\346q\254\020P\315\310?\346q\254\020P\315\310?$\360J\217\027\226\325?\372\254G \336\203\333\277F\267v\206\326\300l?@\351+\002l\205w?HY\316Xn6\207?\377\244`A\013\320\364\277Ly%\207\010_\361?\346q\254\020P\315\310?\346q\254\020P\315\310?\343910\356\264\325?\025\037\346\'\205\217\333\277w\270v\206\326\300l?<\351+\002l\205w?HY\316Xn6\207?\314`}4\032\320\364\277\221\275\"RwE\357?\346q\254\020P\315\310?\346q\254\020P\315\310?\200\307\371\300\333\r\326?/\324-\022\006\253\320?\347\273v\206\326\300l?h\366+\002l\205w?HY\316Xn6\207?\034Q\222\312\033\320\364\277\031J\007A\246\316\353?\346q\254\020P\315\310?\346q\254\020P\315\310?\305\031\227\377CD\324?Q#eOs\366\351\2778\252v\206\326\300l?\373\341+\002l\205w?HY\316Xn6\207?T \026\215\025\320\364\277E\313\022\277\206W\350?\346q\254\020P\315\310?\346q\254\020P\315\310?\211\314\226t\210\217\326?Z\t9\024\365\241\313?\352\300v\206\326\300l?\217\365+\002l\205w?HY\316Xn6\207?\372h*\002\000\320\364\277\207\251\242H\241\337\344?\346q\254\020P\315\310?\346q\254\020P\315\310?E\t\347\376\237\201\327?\200\377\305\267(\224\356?E\312v\206\326\300l?\250\003,\002l\205w?HY\316Xn6\207?\203\3760\032\016\320\364\277v\217\222(\214h\341?\346q\254\020P\315\310?\346q\254\020P\315\310?9\333I\237\233\203\325?\364\201I\225/\224\342?\220\266v\206\326\300l?\202\374+\002l\205w?HY\316Xn6\207?\266\261\366~\365\317\364\277`\237*\341\007\350\333?\346q\254\020P\315\310?\346q\254\020P\315\310?\242\224\014/wV\324?=D\376\266Z2\312\277\354\252v\206\326\300l?\213\355+\002l\205w?HY\316Xn6\207?Y\202V\211j\250\350?S\313\207\257\r\376\324?\346q\254\020P\315\310?\346q\254\020P\315\310?\265\306\210\344\326\275\324?\007\256\205\010\245\341\322?\352\256v\206\326\300l?\021\367+\002l\205w?HY\316Xn6\207?Y\202V\211j\250\350?\243\0249OE,\314?\346q\254\020P\315\310?\346q\254\020P\315\310?\024y\342\236Ty\327?\377\010\232\215\221\206\352?\362\311v\206\326\300l?>\001,\002l\205w?HY\316Xn6\207?Y\202V\211j\250\350?c5\316\014N\236\274?\346q\254\020P\315\310?\346q\254\020P\315\310?eg\233\255:\253\326?#\373\021\2245Vm?\374\301v\206\326\300l?\203\361+\002l\205w?HY\316Xn6\207?Y\202V\211j\250\350?<\\g\243\2049k?\346q\254\020P\315\310?\346q\254\020P\315\310?\266\352(\375\274\347\324?Ta\014\231\004\250\332\277\211\260v\206\326\300l?\201\351+\002l\205w?HY\316Xn6\207?Y\202V\211j\250\350?%P\362\204\267\332\272\277\346q\254\020P\315\310?\346q\254\020P\315\310?\322\006\n\256\250\266\327?\310K\020,=[\353?R\314v\206\326\300l?\275\001,\002l\205w?HY\316Xn6\207?Y\202V\211j\250\350?\246\036e\370\355J\313\277\346q\254\020P\315\310?\346q\254\020P\315\310?\023\020\356|\337\343\326?\314\213\257\213\376\035\263?,\304v\206\326\300l?\336\362+\002l\205w?HY\316Xn6\207?Y\202V\211j\250\350?x\010\205\201P\226\324\277\346q\254\020P\315\310?\346q\254\020P\315\310?ia\001\376\231M\312?\035L%\347\360\210\004\300\323cv\206\326\300l?\204\300+\002l\205w?HY\316Xn6\207?Y\202V\211j\250\350?#\240N\330\367s\333\277\346q\254\020P\315\310?\346q\254\020P\315\310?R_\265C}\214\275\277s\277\371\216X\234\005\300\242\230u\206\326\300l?\364\275+\002l\205w?HY\316Xn6\207?Y\202V\211j\250\350?\364\360\332\232\234\001\341\277\346q\254\020P\315\310?\346q\254\020P\315\310?\037W\227X\027\357\335\277s] \035\345\240\002\300\223\271t\206\326\300l?\017\305+\002l\205w?HY\316Xn6\207?Y\202V\211j\250\350?\270\321^y`\034\344\277\346q\254\020P\315\310?\346q\254\020P\315\310?\032\264\014o)#\353\277\234[2!\037F\007\300\303\310s\206\326\300l?\376\271+\002l\205w?HY\316Xn6\207?Y\202V\211j\250\350?\323U\036\222(\n\347\277\346q\254\020P\315\310?\346q\254\020P\315\310?\216\366\354\226\335\354\362\2776ua|\003\221\003\300\312\364r\206\326\300l?\323\302+\002l\205w?HY\316Xn6\207?Y\202V\211j\250\350?\261\236\261p\334\314\351\277\346q\254\020P\315\310?\346q\254\020P\315\310?\177\234W\253\343\342\367\277;\224\245W\375\223\006\300w0r\206\326\300l?\246\273+\002l\205w?HY\316Xn6\207?Y\202V\211j\250\350?\301S\311\315nj\354\277\346q\254\020P\315\310?\346q\254\020P\315\310?\003\026f\357\313\253\375\277m\332uB\036\242\003\300\213Kq\206\326\300l?\253\302+\002l\205w?HY\316Xn6\207?Y\202V\211j\250\350?\'A/\240\345\331\356\277\346q\254\020P\315\310?\346q\254\020P\315\310?\224\354T8\317G\001\300\212p`B\006\300\004\300\t\212p\206\326\300l?\001\300+\002l\205w?HY\316Xn6\207?Y\202V\211j\250\350?2\317\024\263\354\221\360\277\346q\254\020P\315\310?\346q\254\020P\315\310?\002\210\245\330\r\240\003\300\2179\224\005\370\264\373\277v\320o\206\326\300l?o\320+\002l\205w?HY\316Xn6\207?Y\202V\211j\250\350?\371g\r@ \243\361\277\346q\254\020P\315\310?\346q\254\020P\315\310?\241\261\347f\337q\006\300\006\0237\006N\"\007\300M\361n\206\326\300l?S\272+\002l\205w?HY\316Xn6\207?Y\202V\211j\250\350?\250\312\267\341j\240\362\277\346q\254\020P\315\310?\346q\254\020P\315\310?\267@\322D\276\245\010\300\222\033\327L\377\272\375\277\371Bn\206\326\300l?\007\316+\002l\205w?HY\316Xn6\207?Y\202V\211j\250\350?\361\340=\253\243\212\363\277\346q\254\020P\315\310?\346q\254\020P\315\310?>G\001^!\030\013\300\325\2568\021\376\010\004\300Q\201m\206\326\300l?\265\301+\002l\205w?HY\316Xn6\207?Y\202V\211j\250\350?aK\337\276\314b\364\277\346q\254\020P\315\310?\346q\254\020P\315\310?>$zU\252Z\r\300L\370\253\344\311\020\006\300t\316l\206\326\300l?\337\274+\002l\205w?HY\316Xn6\207?Y\202V\211j\250\350?\335\"s\226\220)\365\277\346q\254\020P\315\310?\346q\254\020P\315\310?\330Q\031\376d|\017\300\005W\304J\240\334\374\277\275%l\206\326\300l?\020\317+\002l\205w?HY\316Xn6\207?Y\202V\211j\250\350?3\231\217o\272\335\365\277\346q\254\020P\315\310?\346q\254\020P\315\310?[)\341\224\364\316\020\300\205V\355\220M.\371\277\024}k\206\326\300l?r\323+\002l\205w?HY\316Xn6\207?Y\202V\211j\250\350?t\256(Xt\200\366\277\346q\254\020P\315\310?\346q\254\020P\315\310?\364vQ1\307\374\021\300\016V\360\353\363\002\007\300u\302j\206\326\300l?\236\272+\002l\205w?HY\316Xn6\207?Y\202V\211j\250\350?\376MFn\215\022\367\277\346q\254\020P\315\310?\346q\254\020P\315\310?\330$\226~\"\350\022\300\336v\372\263z\314\376\277\3560j\206\326\300l?\301\314+\002l\205w?HY\316Xn6\207?Y\202V\211j\250\350?[OG8\355\223\367\277\346q\254\020P\315\310?\346q\254\020P\315\310?&\345\235\3716\265\326?,\3365\3030\266\345?^\302v\206\326\300l?`\376+\002l\205w?HY\316Xn6\207?\254R@A\253[\365\277\372\266\316@d\373\362?\346q\254\020P\315\310?\346q\254\020P\315\310?\241+xr\177\246\327?\246\210\223\026\242\355\322?\262\313v\206\326\300l?\024\367+\002l\205w?HY\316Xn6\207?C\265\201\251\304[\365\277\363\334\006v}>\361?\346q\254\020P\315\310?\346q\254\020P\315\310?\267\356\277\252\r\365\326?Q\021\244\244X\221\345?\326\304v\206\326\300l?I\376+\002l\205w?HY\316Xn6\207?*\354{\207\265[\365\277qY\217M\334\005\357?\346q\254\020P\315\310?\346q\254\020P\315\310?\"\251\024\003\250\342\327?\261^\356\223\225/\340?\004\316v\206\326\300l?\025\373+\002l\205w?HY\316Xn6\207?}S\354(\303[\365\277}\"u\216b\214\353?\346q\254\020P\315\310?\346q\254\020P\315\310?\342>\234\356\204\350\327?Jt4\316d\316\343??\316v\206\326\300l?>\375+\002l\205w?HY\316Xn6\207?A]\356\332\337[\365\277\362\311\302\256I\023\350?\346q\254\020P\315\310?\346q\254\020P\315\310?:\365\224\026\266\201\330?>iC\370\266\340\353?+\324v\206\326\300l?\014\002,\002l\205w?HY\316Xn6\207?\004_\350Q\370[\365\277\311\262\371T\364\231\344?\346q\254\020P\315\310?\346q\254\020P\315\310?\021l\343\366\265\350\326?M\322\350\325\275\203\304?\\\304v\206\326\300l?\177\364+\002l\205w?HY\316Xn6\207?gB\272\224\354[\365\277v/m\3779!\341?\346q\254\020P\315\310?\346q\254\020P\315\310?\3313Oi\371\356\327?9=\247\355\372\324\346?\177\316v\206\326\300l?\n\377+\002l\205w?HY\316Xn6\207?\361)\302f\373[\365\277\t\3614P\005Q\333?\346q\254\020P\315\310?\346q\254\020P\315\310?\314\257\333\357\365\220\330?\016\362\021^\'\037\342?\301\324v\206\326\300l?=\374+\002l\205w?HY\316Xn6\207?\372q\274\326\r\\\365\277:0\351S4\\\324?\346q\254\020P\315\310?\346q\254\020P\315\310?Y\237\377\217\2421\330?7\264J\213:\255\333?\022\321v\206\326\300l?\260\371+\002l\205w?HY\316Xn6\207?\375Q\t\252!\\\365\277e\322\331\361\365\317\312?\346q\254\020P\315\310?\346q\254\020P\315\310?\"r\222\213\342\232\325?G\272\262\234\271=\335\277v\267v\206\326\300l?\274\350+\002l\205w?HY\316Xn6\207?\367\024\341\004)\\\365\277A\206\216\335R\336\271?\346q\254\020P\315\310?\346q\254\020P\315\310?\301{\247\000\227T\326?\257\277\253\r\307\325\340?\243\276v\206\326\300l?y\373+\002l\205w?HY\316Xn6\207?\010\003\035\323$\\\365\277\331Z\357\244{#}\277\346q\254\020P\315\310?\346q\254\020P\315\310?z\035\227\000\024\225\326?_\002D\034\233\324\211\277!\301v\206\326\300l?3\361+\002l\205w?HY\316Xn6\207?\353\343\306\3670\\\365\277\326\235=r\032\225\275\277\346q\254\020P\315\310?\346q\254\020P\315\310?O\026\\\311C\261\326?\312\257\326\205\252\320\347?8\302v\206\326\300l?\240\377+\002l\205w?HY\316Xn6\207?\214\233\354\216)\\\365\277*\365\304\250\307\241\314\277\346q\254\020P\315\310?\346q\254\020P\315\310?\337\265\030\204u)\327?\tf2y\371\031\344?\335\306v\206\326\300l?j\375+\002l\205w?HY\316Xn6\207?Y\202V\211j\250\350?\257N\034\317\335>\325\277\346q\254\020P\315\310?\346q\254\020P\315\310?6\264\035\245\022@\311?\276R\325>\215\210\000\300\236^v\206\326\300l?\r\312+\002l\205w?HY\316Xn6\207?Y\202V\211j\250\350?\341\n1a\362\026\334\277\346q\254\020P\315\310?\346q\254\020P\315\310?K\234\232\346\205\004\301\277$\021\035\336:\336\375\277\211\215u\206\326\300l?\334\315+\002l\205w?HY\316Xn6\207?Y\202V\211j\250\350?R\244\367H\376M\341\277\346q\254\020P\315\310?\346q\254\020P\315\310?\'\214\346D\304s\340\277\202\205R/\352\032\003\300/\234t\206\326\300l?\355\303+\002l\205w?HY\316Xn6\207?Y\202V\211j\250\350?\255i\313\317<c\344\277\346q\254\020P\315\310?\346q\254\020P\315\310?\202\371\370\035T\247\352\277\313\342[H\227\255\375\277U\322s\206\326\300l?\026\316+\002l\205w?HY\316Xn6\207?Y\202V\211j\250\350?3#;\025&O\347\277\346q\254\020P\315\310?\346q\254\020P\315\310?\226\373\266\213\317\310\362\277k\005n[\301\367\000\300]\372r\206\326\300l?\005\311+\002l\205w?HY\316Xn6\207?Y\202V\211j\250\350?\001\204?\246\302\021\352\277\346q\254\020P\315\310?\346q\254\020P\315\310?\234\347+\014\373\246\370\277M\362\021l=\337\006\300(\022r\206\326\300l?\363\272+\002l\205w?HY\316Xn6\207?Y\202V\211j\250\350?\310O\220\315\212\251\354\277\346q\254\020P\315\310?\346q\254\020P\315\310?\352\215\004zWh\375\277\321<k+\307^\376\277\370Uq\206\326\300l?D\315+\002l\205w?HY\316Xn6\207?Y\202V\211j\250\350?\270A\357\355\007\031\357\277\346q\254\020P\315\310?\346q\254\020P\315\310?V\330\0227)r\001\300\020I(\232\033[\005\300\361|p\206\326\300l?\220\276+\002l\205w?HY\316Xn6\207?Y\202V\211j\250\350?\352\031\340\230S\260\360\277\346q\254\020P\315\310?\346q\254\020P\315\310?\353\2468\001\221\004\004\300\276r\226zG\340\005\300c\261o\206\326\300l?S\275+\002l\205w?HY\316Xn6\207?Y\202V\211j\250\350?\324\nUX=\300\361\277\346q\254\020P\315\310?\346q\254\020P\315\310?\252\264\224\027\347\302\006\300\\F\220\030\212=\n\300?\330n\206\326\300l?\354\262+\002l\205w?HY\316Xn6\207?Y\202V\211j\250\350?O\3621\230\276\273\362\277\346q\254\020P\315\310?\346q\254\020P\315\310?\230\372\312\202C\352\010\300\267jj\244\306(\004\300\312-n\206\326\300l?j\301+\002l\205w?HY\316Xn6\207?Y\202V\211j\250\350?\346u\372w\005\245\363\277\346q\254\020P\315\310?\346q\254\020P\315\310?\013#\032\324)G\013\300\332\026`\037\275r\004\300\307rm\206\326\300l?\271\300+\002l\205w?HY\316Xn6\207?Y\202V\211j\250\350?\346\337\3442\315{\364\277\346q\254\020P\315\310?\346q\254\020P\315\310?\320\307P\326\210\306\r\300\020\313k{\236\242\005\300\033\255l\206\326\300l?\346\275+\002l\205w?HY\316Xn6\207?Y\202V\211j\250\350?(P\245\2120?\365\277\346q\254\020P\315\310?\346q\254\020P\315\310?\034q\334u\240\304\017\300\027\023\310\375T\341\374\277g\017l\206\326\300l?\n\317+\002l\205w?HY\316Xn6\207?Y\202V\211j\250\350?\002\337B\372\036\361\365\277\346q\254\020P\315\310?\346q\254\020P\315\310?Pe\367\246\025\326\020\300\260\247\010N\262o\373\277\254xk\206\326\300l?\302\320+\002l\205w?HY\316Xn6\207?Y\202V\211j\250\350?U\337\254\023\212\223\366\277\346q\254\020P\315\310?\346q\254\020P\315\310?\225\006m\205\201\376\021\300.\365\021\001i\251\001\300c\301j\206\326\300l?]\307+\002l\205w?HY\316Xn6\207?Y\202V\211j\250\350?\326\317\266\004:$\367\277\346q\254\020P\315\310?\346q\254\020P\315\310?1\256\325\277\340\342\022\300U^\332Y\230\353\374\277.4j\206\326\300l?\376\316+\002l\205w?HY\316Xn6\207?Y\202V\211j\250\350?\002\330\246^z\245\367\277\346q\254\020P\315\310?\346q\254\020P\315\310?\354\210q\301\212\006\326?\351x\3569\324\205\331\277\237\273v\206\326\300l?\327\351+\002l\205w?HY\316Xn6\207?\307[\330(\006\033\362\277\021\300\205\265\300\271\361?\346q\254\020P\315\310?\346q\254\020P\315\310?\302\337%D\323\005\326?\315\377\211\247\325.\265?\230\273v\206\326\300l?\005\363+\002l\205w?HY\316Xn6\207?#\'\224\367\017\033\362\277\312\340\005J\031\374\357?\346q\254\020P\315\310?\346q\254\020P\315\310?0\267\026\032P\262\327?\036o\022r}\335\350?\'\314v\206\326\300l?A\000,\002l\205w?HY\316Xn6\207?\314gA`\020\033\362\277\036\234\2163\357\203\354?\346q\254\020P\315\310?\346q\254\020P\315\310?3\031\376\177|\037\326?!(\232\034U\242\320?\225\274v\206\326\300l?f\366+\002l\205w?HY\316Xn6\207?s\277\227z\373\032\362\277\322\217\231\227\000\r\351?\346q\254\020P\315\310?\346q\254\020P\315\310?\226\307\207\365R\321\326?\034\342\234\337\302\304\341?t\303v\206\326\300l?\006\374+\002l\205w?HY\316Xn6\207?rW\274\332\344\032\362\277\306\307\270\236\314\225\345?\346q\254\020P\315\310?\346q\254\020P\315\310?|{\272\2717a\324?\336c\220J/\300\330\277V\253v\206\326\300l?\023\352+\002l\205w?HY\316Xn6\207?\022%\240\211\343\032\362\277N`F\032\001 \342?\346q\254\020P\315\310?\346q\254\020P\315\310?t\0105\240\240t\326?\356\3621\365\256\333\263?\340\277v\206\326\300l?\353\362+\002l\205w?HY\316Xn6\207?ZF\220@\340\032\362\277\033(\315~\304O\335?\346q\254\020P\315\310?\346q\254\020P\315\310?[\240\331I\315+\327?\327\270\315 \261\326\345?\364\306v\206\326\300l?s\376+\002l\205w?HY\316Xn6\207?I\357p\373\357\032\362\277&\260T2\034a\326?\346q\254\020P\315\310?\346q\254\020P\315\310?\346\331\251\352\363n\326?\345\367_\326\342q\252\277\247\277v\206\326\300l?u\360+\002l\205w?HY\316Xn6\207?t\303/\322\366\032\362\277\267-\345or\340\316?\346q\254\020P\315\310?\346q\254\020P\315\310?7\247\324\026\323B\325?\005\037\365\210\3737s?\016\264v\206\326\300l?\210\361+\002l\205w?HY\316Xn6\207?\177\261=\007\356\032\362\277w2\024\240\266\010\301?\346q\254\020P\315\310?\346q\254\020P\315\310?\212\344\314\2203w\326?\261\273\031\253\246^\307?\371\277v\206\326\300l?\354\364+\002l\205w?HY\316Xn6\207?\216\266\r \353\032\362\2776\200\266\307\332S\231?\346q\254\020P\315\310?\346q\254\020P\315\310?\260\377\374{$@\327?{:\335\372\346\213\340?\275\307v\206\326\300l?L\373+\002l\205w?HY\316Xn6\207?C\241g\246\357\032\362\277\006\272\273A\205i\265\277\346q\254\020P\315\310?\346q\254\020P\315\310?K\010Hk-Z\324?V\242`u\244\340\343\277\020\253v\206\326\300l?\232\345+\002l\205w?HY\316Xn6\207?\305,Q\300\344\032\362\277\242\340\337\322Q\215\310\277\346q\254\020P\315\310?\346q\254\020P\315\310?\022\374\352\270-\007\327?\372\373N$I(\351?\211\305v\206\326\300l?m\000,\002l\205w?HY\316Xn6\207?\352Wg\033\321\032\362\277&\014\265\335\0273\323\277\346q\254\020P\315\310?\346q\254\020P\315\310?}\363zZO\360\324?\375\216\362\361\362j\304\277\336\260v\206\326\300l?f\356+\002l\205w?HY\316Xn6\207?\225\336S\014\313\032\362\277\2742\017\376\325\035\332\277\346q\254\020P\315\310?\346q\254\020P\315\310?\244\302\366|e\216\260\277\230m\2304\3544\013\300\305\270u\206\326\300l?\237\260+\002l\205w?HY\316Xn6\207?Y\202V\211j\250\350?!\235\352nI_\340\277\346q\254\020P\315\310?\346q\254\020P\315\310?\003P`\312r_\330\2772 l)\'\352\376\277\227\360t\206\326\300l?\235\314+\002l\205w?HY\316Xn6\207?Y\202V\211j\250\350?/\212\321jd\203\343\277\346q\254\020P\315\310?\346q\254\020P\315\310?lrB5\335:\350\277R\r\223\301h\n\t\300J\002t\206\326\300l?\311\265+\002l\205w?HY\316Xn6\207?Y\202V\211j\250\350?q\214KM,}\346\277\346q\254\020P\315\310?\346q\254\020P\315\310?5s9\001\024\210\361\277W\302\317\376x\300\t\300\360+s\206\326\300l?\026\264+\002l\205w?HY\316Xn6\207?Y\202V\211j\250\350?:J2\357ZM\351\277\346q\254\020P\315\310?\346q\254\020P\315\310?\353+\036\332-\242\366\277w\335\335\217%\333\375\277\nbr\206\326\300l?\340\315+\002l\205w?HY\316Xn6\207?Y\202V\211j\250\350?\274\277M\264B\361\353\277\346q\254\020P\315\310?\346q\254\020P\315\310?vP\372|\002\315\374\277N\227\367\216\"\306\007\300\374mq\206\326\300l?\315\270+\002l\205w?HY\316Xn6\207?Y\202V\211j\250\350?U^\031\322Li\356\277\346q\254\020P\315\310?\346q\254\020P\315\310?\272\350\027>\005\375\000\300J_\324\357\222\371\004\300)\241p\206\326\300l?x\277+\002l\205w?HY\316Xn6\207?Y\202V\211j\250\350?\353@d/\367[\360\277\346q\254\020P\315\310?\346q\254\020P\315\310?f\001\001\262b\025\003\300?P\235,yC\373\277V\373o\206\326\300l?\367\320+\002l\205w?HY\316Xn6\207?Y\202V\211j\250\350?dW\004\353Sq\361\277\346q\254\020P\315\310?\346q\254\020P\315\310?]o\206\206:\232\005\300fB\350\n\313\242\365\277\3713o\206\326\300l?\253\327+\002l\205w?HY\316Xn6\207?Y\202V\211j\250\350?\341\230\311\271qr\362\277\346q\254\020P\315\310?\346q\254\020P\315\310?\262\305)\026xa\010\300\177\267\n\204\314\226\002\300\025Xn\206\326\300l?\'\305+\002l\205w?HY\316Xn6\207?Y\202V\211j\250\350?&_\037b\232_\363\277\346q\254\020P\315\310?\346q\254\020P\315\310?\346\246\313\320t\221\n\300A\340\363\365\274\036\000\300\364\252m\206\326\300l?\t\313+\002l\205w?HY\316Xn6\207?Y\202V\211j\250\350?\310]\3577\007;\364\277\346q\254\020P\315\310?\346q\254\020P\315\310?\374l\024\260\244\r\r\300\033\261\317Lr\315\001\300E\346l\206\326\300l?\007\307+\002l\205w?HY\316Xn6\207?Y\202V\211j\250\350?\303\334K\211J\003\365\277\346q\254\020P\315\310?\346q\254\020P\315\310?>`\363\277g@\017\300\002{\246\005\003y\000\300I8l\206\326\300l?2\312+\002l\205w?HY\316Xn6\207?Y\202V\211j\250\350?\023\375\300\352\327\271\365\277\346q\254\020P\315\310?\346q\254\020P\315\310?\231\203\346\007H\206\020\300\227}\224\207M\235\363\277\004\252k\206\326\300l?\024\332+\002l\205w?HY\316Xn6\207?Y\202V\211j\250\350?\330\257\213\302u`\366\277\346q\254\020P\315\310?\346q\254\020P\315\310?\315\363\026\031Q\312\021\300\2259\347G\244\035\t\300\251\341j\206\326\300l?\232\265+\002l\205w?HY\316Xn6\207?Y\202V\211j\250\350?BZ\374\3756\366\366\277\346q\254\020P\315\310?\346q\254\020P\315\310?[\260\242@\002\214\022\300^B\254Fp\341\365\277\345ij\206\326\300l?a\327+\002l\205w?HY\316Xn6\207?Y\202V\211j\250\350?\340N\027\223G|\367\277\346q\254\020P\315\310?\346q\254\020P\315\310?.\255y\237:\272\324?\335\301\306\002xu\320\277\307\256v\206\326\300l?\213\354+\002l\205w?HY\316Xn6\207?\025j\003I\\q\365\277]SN\240\\\027\362?\346q\254\020P\315\310?\346q\254\020P\315\310?\3272f\377\254F\324?t-fl\355\344\255\277P\252v\206\326\300l?U\360+\002l\205w?HY\316Xn6\207?w\342\245(8q\365\277\271\332\272\264\026]\360?\346q\254\020P\315\310?\346q\254\020P\315\310?\003\362ilSg\325?\205\245\331&\035\331\275?w\265v\206\326\300l?\252\363+\002l\205w?HY\316Xn6\207?U\366<D9q\365\277\344\260s\341\030D\355?\346q\254\020P\315\310?\346q\254\020P\315\310?G`9\034#^\324?\224\320\020\006=B\276\2778\253v\206\326\300l?0\357+\002l\205w?HY\316Xn6\207?p\005%:\030q\365\277\206\253p\n5\317\351?\346q\254\020P\315\310?\346q\254\020P\315\310?T\231{\216\201\274\324?-}\263\260\200\301\341\277\335\256v\206\326\300l?\335\346+\002l\205w?HY\316Xn6\207?R\301C\037\031q\365\2776\342\022\017\031X\346?\346q\254\020P\315\310?\346q\254\020P\315\310?\354G\317X*\214\324?\002\334\330\006\225\341\330\277\000\255v\206\326\300l?\t\352+\002l\205w?HY\316Xn6\207?\323a7\323)q\365\277\3643_C\367\341\342?\346q\254\020P\315\310?\346q\254\020P\315\310?\336\364\233^\251}\325?r+%\226\357\363\337?T\266v\206\326\300l?\366\372+\002l\205w?HY\316Xn6\207?\225\240\024O q\365\277d\010\332IZ\332\336?\346q\254\020P\315\310?\346q\254\020P\315\310?\236\332x\322J\022\325?\312\\\201\346\264\210\306\277.\262v\206\326\300l?\027\356+\002l\205w?HY\316Xn6\207?e\347j\',q\365\277\365m,W\267\355\327?\346q\254\020P\315\310?\346q\254\020P\315\310?\261\021\t\226\034Y\327?\r\t45\226\304\351?\264\310v\206\326\300l?\312\000,\002l\205w?HY\316Xn6\207?C\305\346Y3q\365\277}\0142\200P\377\320?\346q\254\020P\315\310?\346q\254\020P\315\310?\021\312\255q\177d\325?\001\010\004Fk\331\307\277[\265v\206\326\300l?\344\355+\002l\205w?HY\316Xn6\207?LL\020\253&q\365\277\262Y\357j$#\304?\346q\254\020P\315\310?\346q\254\020P\315\310?\217\017O\372c\354\324?t\236\035s\260\360\342\277\267\260v\206\326\300l?)\346+\002l\205w?HY\316Xn6\207?\212C\260\230(q\365\277\222\003>\362F\027\251?\346q\254\020P\315\310?\346q\254\020P\315\310?\243\206K\343#J\324?\351\005\223z\204\344\261?q\252v\206\326\300l?\306\362+\002l\205w?HY\316Xn6\207?\332\315\212\036\377p\365\277o\244\255;\013$\256\277\346q\254\020P\315\310?\346q\254\020P\315\310?M\014\301wR\303\324?\004\374\023\257\'K\334\277!\257v\206\326\300l?\004\351+\002l\205w?HY\316Xn6\207?\324\177\244S\356p\365\277<c\375\003Ob\305\277\346q\254\020P\315\310?\346q\254\020P\315\310?\326T\310\317aI\324?\332Er\251ch\336\277j\252v\206\326\300l?c\350+\002l\205w?HY\316Xn6\207?\324%\033:\343p\365\277A\255)\000\371\233\321\277\346q\254\020P\315\310?\346q\254\020P\315\310?g\211\312T>*\327?\312\345\261\266\240\302\341?\344\306v\206\326\300l?\005\374+\002l\205w?HY\316Xn6\207?Y\202V\211j\250\350?F\005\251ST\212\330\277\346q\254\020P\315\310?\346q\254\020P\315\310?\323fz\330\254?\\\277\232W|\306\210\317\t\300\240\340u\206\326\300l?\363\263+\002l\205w?HY\316Xn6\207?Y\202V\211j\250\350?\345ez\213k9\337\277\346q\254\020P\315\310?\346q\254\020P\315\310?/\231\221\271\226\273\322\277\343y\030\353\312\345\001\300c(u\206\326\300l?\315\306+\002l\205w?HY\316Xn6\207?Y\202V\211j\250\350?I0\033k\307\314\342\277\346q\254\020P\315\310?\346q\254\020P\315\310?\362oI\251\010\276\344\277c\3553\2223J\003\300LGt\206\326\300l?{\303+\002l\205w?HY\316Xn6\207?Y\202V\211j\250\350?\343\013\tV\177\321\345\277\346q\254\020P\315\310?\346q\254\020P\315\310?,\222\306+\222\273\357\277<\325:\312t\232\002\300\327ms\206\326\300l?\037\305+\002l\205w?HY\316Xn6\207?Y\202V\211j\250\350?.f\303\030h\253\350\277\346q\254\020P\315\310?\346q\254\020P\315\310?\214k\3612q3\366\277\223\313}\324\251\236\005\300(sr\206\326\300l?\356\275+\002l\205w?HY\316Xn6\207?Y\202V\211j\250\350?\007$\277\225\247U\353\277\346q\254\020P\315\310?\346q\254\020P\315\310?1\265\372\375gs\373\277\356\341\240 \226\360\005\300h\243q\206\326\300l?+\275+\002l\205w?HY\316Xn6\207?Y\202V\211j\250\350?&q\233&Z\327\355\277\346q\254\020P\315\310?\346q\254\020P\315\310?\321\370R\232+\023\000\300\307\220\035\265,\005\006\300u\351p\206\326\300l?\372\274+\002l\205w?HY\316Xn6\207?Y\202V\211j\250\350?\017-\274\336H\032\360\277\346q\254\020P\315\310?\346q\254\020P\315\310?\207\255\305\217\345\004\003\3009\247\3159\342\005\014\300n\000p\206\326\300l?\255\256+\002l\205w?HY\316Xn6\207?Y\202V\211j\250\350?\254\021\250F\\3\361\277\346q\254\020P\315\310?\346q\254\020P\315\310?\357\342i\306\'M\005\300\241c\034\236\003j\001\300\314Ko\206\326\300l?\364\307+\002l\205w?HY\316Xn6\207?Y\202V\211j\250\350?\021Y\360\355N8\362\277\346q\254\020P\315\310?\346q\254\020P\315\310?\345\347e`G\235\007\300Zk>\\]\037\372\277\275\224n\206\326\300l?S\322+\002l\205w?HY\316Xn6\207?Y\202V\211j\250\350?\013\202]$8*\363\277\346q\254\020P\315\310?\346q\254\020P\315\310?rvP\r\313\356\t\300)\020\020K\346=\377\277>\335m\206\326\300l?:\314+\002l\205w?HY\316Xn6\207?Y\202V\211j\250\350?\257\375eJ\201\n\364\277\346q\254\020P\315\310?\346q\254\020P\315\310?\304\207J\013E\242\014\300\tg\210d\2677\n\300v\007m\206\326\300l?\373\262+\002l\205w?HY\316Xn6\207?Y\202V\211j\250\350?\205{#\360\356\327\364\277\346q\254\020P\315\310?\346q\254\020P\315\310?\260\325\337\201\251\321\016\300\004T{\353\177\315\005\300\205Zl\206\326\300l?\177\275+\002l\205w?HY\316Xn6\207?Y\202V\211j\250\350?\365\027^\'\030\223\365\277\346q\254\020P\315\310?\346q\254\020P\315\310?\347\240\321\003\336\202\020\300\360q\314\232\327z\006\300!\254k\206\326\300l?\343\273+\002l\205w?HY\316Xn6\207?Y\202V\211j\250\350?\345\351\354\230\334<\366\277\346q\254\020P\315\310?\346q\254\020P\315\310?\201\351\034\223g\211\021\300O5\274\3413\021\006\300\313\tk\206\326\300l?\336\274+\002l\205w?HY\316Xn6\207?Y\202V\211j\250\350?A\202\377a\t\326\366\277\346q\254\020P\315\310?\346q\254\020P\315\310?\026\tt\212\370}\022\300\014\215\024\210\363\360\373\277\223rj\206\326\300l?(\320+\002l\205w?HY\316Xn6\207?Y\202V\211j\250\350?\337\353!\354\350]\367\277\346q\254\020P\315\310?\346q\254\020P\315\310?\202b-(\351\334\325?\203\335\372/i\363\301\277\003\272v\206\326\300l?\305\356+\002l\205w?HY\316Xn6\207?\354\261\351l\246n\365\277\2369\375\336\360*\363?\346q\254\020P\315\310?\346q\254\020P\315\310?\234V3\342\345\226\330?\271\346\204o\ny\355?\374\324v\206\326\300l?\377\002,\002l\205w?HY\316Xn6\207?\013,\3066\"r\365\277u\275\265\022<n\361?\346q\254\020P\315\310?\346q\254\020P\315\310?\222\303\t[\225\016\326?\307@A\023ah\320\277\356\273v\206\326\300l?\217\354+\002l\205w?HY\316Xn6\207?\345\373\230\001Lu\365\277\306$\020\246\316c\357?\346q\254\020P\315\310?\346q\254\020P\315\310?p8\000\363N\331\327?p!\365\021\301\016\334?\250\315v\206\326\300l?\314\371+\002l\205w?HY\316Xn6\207?\002\360\366\3302x\365\277r\215=\222)\352\353?\346q\254\020P\315\310?\346q\254\020P\315\310?\2667\301\301\357\216\330?\324\335\332\2619\242\341?\256\324v\206\326\300l?\362\373+\002l\205w?HY\316Xn6\207?\340-\3552\341z\365\277\253\337\303\247\222o\350?\346q\254\020P\315\310?\346q\254\020P\315\310?\371\017\031\345\212\360\327?O\261\335~\251\033\357?\216\316v\206\326\300l?\371\003,\002l\205w?HY\316Xn6\207?\225\332\213\304\"}\365\277J\217\207\271\256\367\344?\346q\254\020P\315\310?\346q\254\020P\315\310?\373j6\245)\274\325?F\315\356\212\311\345\264\277\277\270v\206\326\300l?\342\357+\002l\205w?HY\316Xn6\207?\267\2331A\374~\365\277\276>\024\352[\200\341?\346q\254\020P\315\310?\346q\254\020P\315\310?^+\343D\365\376\327?n\301\306\013&\177\341?\035\317v\206\326\300l?\335\373+\002l\205w?HY\316Xn6\207?\234\260\374\037h\200\365\277\371\314\363@\335\r\334?\346q\254\020P\315\310?\346q\254\020P\315\310?\243\313\252\026\275\031\327?|\354\227\031\3363\345?B\306v\206\326\300l?\022\376+\002l\205w?HY\316Xn6\207?b\031\374~\010\201\365\277\025v|\324Z\037\325?\346q\254\020P\315\310?\346q\254\020P\315\310?6\354\031\017K\330\325?\251`\350\3233\310\302\277\325\271v\206\326\300l?\245\356+\002l\205w?HY\316Xn6\207?#\203\002\017\006\201\365\277\222 fa*`\314?\346q\254\020P\315\310?\346q\254\020P\315\310?\252\377\330\250\270\222\325?\240\224D\340\3571\217?%\267v\206\326\300l?\273\361+\002l\205w?HY\316Xn6\207?W;F\322\007\201\365\277q\2461\224r\014\275?\346q\254\020P\315\310?\346q\254\020P\315\310?2\223\220t\036M\326?/\251\365\037\013`\316\277X\276v\206\326\300l?\353\354+\002l\205w?HY\316Xn6\207?\000$m\177\030\201\365\277\256\300\t\231\373lt?\346q\254\020P\315\310?\346q\254\020P\315\310?<\261\275\226D\254\325?1\261\363gCn\307?!\270v\206\326\300l?\356\364+\002l\205w?HY\316Xn6\207?t\016v\017\006\201\365\277\276|\343\240\251h\272\277\346q\254\020P\315\310?\346q\254\020P\315\310?\212}]Pj\316\324?\002\000\005\221\240,\277\277\217\257v\206\326\300l?\037\357+\002l\205w?HY\316Xn6\207? \345.\256\002\201\365\277\032\254\262\366G\t\313\277\346q\254\020P\315\310?\346q\254\020P\315\310?r\316<\236\210+\325?0LN\026\260\022\247\277(\263v\206\326\300l?\226\360+\002l\205w?HY\316Xn6\207?Y\276\305\227\341\200\365\277e\034\332\030\271o\324\277\346q\254\020P\315\310?\346q\254\020P\315\310?\353\257S\356\035V\316?.K\265\r\032\341\370\277\307wv\206\326\300l?\316\323+\002l\205w?HY\316Xn6\207?9\035\312\375YQ\364\277\321\312{\223\006N\333\277\346q\254\020P\315\310?\346q\254\020P\315\310?\013\356\243\371\002\301\267\277)\306\262\347\033U\010\300\367\246u\206\326\300l?x\267+\002l\205w?HY\316Xn6\207?\266\024UtQQ\364\277\217O\242\337\237\362\340\277\346q\254\020P\315\310?\346q\254\020P\315\310?\337\212\205\254\366!\335\277l\0252$\243y\004\300\200\301t\206\326\300l?\251\300+\002l\205w?HY\316Xn6\207?\316\255_V8O\364\277\266}6\210\276\017\344\277\346q\254\020P\315\310?\346q\254\020P\315\310?\353\354u\204q@\352\277\'5R\367\313\317\005\300I\332s\206\326\300l?y\275+\002l\205w?HY\316Xn6\207?3\343=,pK\364\277\026^\262aJ\000\347\277\346q\254\020P\315\310?\346q\254\020P\315\310?V\355\217\2432\274\362\277\0018`\376\330\336\013\300P\374r\206\326\300l?\n\257+\002l\205w?HY\316Xn6\207?\334\367O\367\223F\364\277\025\232\311\226\031\310\351\277\346q\254\020P\315\310?\346q\254\020P\315\310?.\361%M7\352\367\277\332\315\305eY\331\010\300U/r\206\326\300l?=\266+\002l\205w?HY\316Xn6\207?\014\001OC\254@\364\277\343\267\221Msf\354\277\346q\254\020P\315\310?\346q\254\020P\315\310?t\3755P\366\026\375\277\007\016\326\365\247\234\005\300\215bq\206\326\300l?\363\275+\002l\205w?HY\316Xn6\207?\317T\027\001\2039\364\277\227^\337\014>\333\356\277\346q\254\020P\315\310?\346q\254\020P\315\310?\\\211\357/\331p\001\300\207[\305\304\001\037\t\300Y}p\206\326\300l?\227\265+\002l\205w?HY\316Xn6\207?\370\307l\021%1\364\277\013+d6S\222\360\277\346q\254\020P\315\310?\346q\254\020P\315\310?Y\366\037Q\241\327\003\300%\0277!\246\225\007\300G\277o\206\326\300l?@\271+\002l\205w?HY\316Xn6\207?]\342\367y\274\'\364\277;<\374\331\375\243\361\277\346q\254\020P\315\310?\346q\254\020P\315\310?\'\017\240\214\240m\006\300\207#\260iK\323\007\300\235\362n\206\326\300l?\255\270+\002l\205w?HY\316Xn6\207?ze\304\311`\035\364\277\203\234\0050\217\241\362\277\346q\254\020P\315\310?\346q\254\020P\315\310?u\247\212\206-\273\010\300?\rw\371g\033\375\277Y<n\206\326\300l?\305\316+\002l\205w?HY\316Xn6\207?\324`Mi\303\021\364\277\276\'\334\225\022\213\363\277\346q\254\020P\315\310?\346q\254\020P\315\310?\320KMQ\206N\013\300,lNj\352(\005\300\200pm\206\326\300l?\007\277+\002l\205w?HY\316Xn6\207?\320#&!*\005\364\277\336\030ST\334a\364\277\346q\254\020P\315\310?\346q\254\020P\315\310?5X\321w\255A\r\300\306#\220X\'\352\001\300/\326l\206\326\300l?\302\306+\002l\205w?HY\316Xn6\207?\270r\"\330\302\367\363\277\'\'\000ix(\365\277\346q\254\020P\315\310?\346q\254\020P\315\310?\214;c]M\202\017\300\222\320^\272F7\375\277\350#l\206\326\300l?\243\316+\002l\205w?HY\316Xn6\207?R\243Q\036?\351\363\277\023YY\333\200\334\365\277\346q\254\020P\315\310?\346q\254\020P\315\310?\nE\227\241K\302\020\300\310\234\030\347 x\372\277\351\204k\206\326\300l?\351\321+\002l\205w?HY\316Xn6\207?\274\020\364\241\334\331\363\277\214\243\355\267\035\200\366\277\346q\254\020P\315\310?\346q\254\020P\315\310?\'\222\372\0137\320\021\300\377\330\247\030\354\336\374\277\003\336j\206\326\300l?\r\317+\002l\205w?HY\316Xn6\207?\235\253\334\010\271\311\363\277\255:v\225\373\022\367\277\346q\254\020P\315\310?\346q\254\020P\315\310?\224\241H\035\211\312\022\300\2638#\247_\376\366\277;Cj\206\326\300l?\r\326+\002l\205w?HY\316Xn6\207?\264P\333(\300\270\363\277\300\300\336\243:\225\367\277\346q\254\020P\315\310?\346q\254\020P\315\310?\246\375\332\264\301\001\327?F\307Z2\303M\320?T\305v\206\326\300l?L\366+\002l\205w?HY\316Xn6\207?\352M\3677a^\365\277\202@\353\250\202\224\361?\346q\254\020P\315\310?\346q\254\020P\315\310?\002\315`\016d{\325?8\331\220\010!X\323?>\266v\206\326\300l?3\367+\002l\205w?HY\316Xn6\207?\240\323\307S<^\365\277\357_\351\251m\263\357?\346q\254\020P\315\310?\346q\254\020P\315\310?\267\024\346P-6\326?\370H,